int32_t weight[] = {
0x3D183208,
0x00000071,
0x02D0E3D8,
0x00000007,
0xD9CDBBF3,
0x00000011,
0xE9DE27FE,
0x000000F6,
0x001EE251,
0x00000003,
0xEEC5D7FD,
0x00000001,
0xE8C43E0C,
0x00000009,
0x81CA2A48,
0x000000D3,
0x0D6D7FE5,
0x0000001C,
0x372507C0,
0x0000000F,
0xBE3212EA,
0x000000C1,
0xDFA1A240,
0x0000000F,
0x64B6ACF1,
0x0000004F,
0x5178294C,
0x0000002C,
0xD32B4DFF,
0x00000083,
0x2F112242,
0x0000001D,
0x0BDEC507,
0x000000D4,
0xE50E0510,
0x00000001,
0xD90FF6F6,
0x000000FE,
0x1ADD21F1,
0x0000001E,
0xE00FDC15,
0x0000004F,
0xEDD5E7FB,
0x00000014,
0x1DD8D60D,
0x0000006A,
0xFD2AD70E,
0x0000002F,
0x0022D3E2,
0x00000056,
0xAB5A41F2,
0x000000E1,
0x9D3756E1,
0x00000003,
0xE455270B,
0x000000B0,
0x23E11CE0,
0x00000020,
0xE1141209,
0x000000D4,
0xF9F1F603,
0x000000FB,
0x0E07FE03,
0x00000015,
0xFCF1F3F9,
0x000000FB,
0x05F71500,
0x000000F7,
0x17120901,
0x00000017,
0xFA03F9F4,
0x000000FD,
0xFD06EEE7,
0x00000008,
0x14040D00,
0x00000024,
0xFFFD0F02,
0x0000000C,
0xFEFFFEE5,
0x000000E1,
0xC5D5E9DF,
0x000000C3,
0xE4E1DDE5,
0x000000EE,
0x181D1D0B,
0x00000022,
0x08141E10,
0x0000000C,
0x1106EF0E,
0x000000EF,
0xF9F7000A,
0x000000F2,
0x15050F03,
0x000000F6,
0xE2F8FE05,
0x000000D8,
0xFAE3EFFF,
0x000000FB,
0x19FEFDF2,
0x00000007,
0xF2F5FCEB,
0x000000D3,
0xE3F5E5D9,
0x000000D5,
0xF6F20AF7,
0x00000009,
0xDBE6FF0C,
0x000000FB,
0xDCC9EFFD,
0x000000E9,
0x10FB0D02,
0x000000FC,
0xEAFDFAE3,
0x0000000B,
0xDCC2F0DA,
0x000000FB,
0xF5D5E8ED,
0x00000014,
0xF7FF01F5,
0x000000EE,
0x0100F603,
0x000000ED,
0xFEFBF604,
0x000000E6,
0x0104F6F3,
0x000000E7,
0xF0E8EAF6,
0x000000E4,
0xECECEAE2,
0x000000F8,
0x01F7F7F2,
0x000000FA,
0x0711FDFC,
0x000000FE,
0xFEF5FFE7,
0x000000F3,
0xF1FAE6E6,
0x000000EE,
0xFDF0ECE7,
0x000000F5,
0xF4F9FEF7,
0x00000004,
0xF5E4DDFA,
0x000000FE,
0xF2FFFEE4,
0x00000005,
0xF5EB00F7,
0x00000005,
0xF80200FE,
0x000000EE,
0x01FDF5ED,
0x000000EE,
0xFF03F3FE,
0x000000F5,
0xEE06F0EE,
0x000000EA,
0x09FDF402,
0x000000E7,
0xEDF5E7F9,
0x000000F0,
0x03FBE706,
0x000000F4,
0xFC0309F9,
0x000000F0,
0xF8F2E5EC,
0x000000F3,
0xF4F4F1E8,
0x000000F5,
0xFB02E8FA,
0x000000F3,
0x010DFDFD,
0x00000003,
0x020200FE,
0x000000FC,
0x0EE5F20C,
0x000000F3,
0xEF04F1FE,
0x000000EE,
0xE9F4F2ED,
0x000000E9,
0xF4E0F406,
0x00000014,
0x07EDF525,
0x00000019,
0xE4E90110,
0x00000006,
0xF00200F7,
0x00000003,
0x0A020805,
0x00000004,
0xEAEDE0F4,
0x0000001A,
0xF7CFC8F7,
0x00000016,
0x17F1CABD,
0x00000008,
0x150EFFC9,
0x00000005,
0x0D141FE0,
0x000000F9,
0xE9EAE10E,
0x000000F4,
0xCCC8E0F2,
0x00000006,
0xF3ABB8F5,
0x00000013,
0x13EAAED8,
0x00000003,
0xF0E1BFD4,
0x000000FA,
0x02CEF3FD,
0x00000018,
0x13E9E213,
0x00000026,
0x0BEFED09,
0x00000001,
0xEDFBFCF7,
0x000000F6,
0xF7EFF0D0,
0x00000008,
0xC2192811,
0x00000004,
0xE0161F23,
0x00000017,
0xE6070E1F,
0x000000F4,
0xE8EB182C,
0x000000DD,
0xE0E9F81D,
0x000000F1,
0x230EFAD3,
0x00000027,
0x140D0AB4,
0x000000FC,
0x04040AF2,
0x000000FD,
0x0B0D1A09,
0x000000F1,
0x01051B13,
0x000000EE,
0x01F603F2,
0x000000E6,
0xE1CCF400,
0x000000F5,
0xFEE1E8FA,
0x0000001A,
0x080A00D1,
0x00000004,
0x081910F8,
0x000000FE,
0xFEDADCF3,
0x0000000D,
0xF506F9D2,
0x0000000E,
0x12C6F4F7,
0x00000025,
0x02160502,
0x00000010,
0xE5121501,
0x000000CB,
0x0AE2EAF5,
0x00000021,
0x263611D6,
0x00000014,
0xDE0C2414,
0x00000006,
0x28F3D503,
0x00000026,
0x1212E7C3,
0x000000F2,
0xFD070210,
0x000000E2,
0xD3151005,
0x000000EC,
0xF3C8F210,
0x000000F5,
0xF9EDD7D3,
0x000000DC,
0xF0EFF2DB,
0x0000000C,
0xECF9F0F2,
0x000000F1,
0xF10414F7,
0x000000E3,
0xECFE1D0A,
0x0000000E,
0x02D00101,
0x000000FD,
0xF7CEE2EF,
0x000000F7,
0xEEFDF40B,
0x000000CB,
0xB7BBFE07,
0x000000E5,
0xF6BEA3EB,
0x00000002,
0xF400F90A,
0x000000F8,
0xD6F61A22,
0x00000025,
0xF900F2E1,
0x00000005,
0xEEF804F4,
0x000000E7,
0xEFF5FCEF,
0x000000F4,
0xE9D6EEE7,
0x000000F9,
0xF5DFE8FB,
0x000000F3,
0xCEB5F317,
0x000000E1,
0xF1BDE800,
0x00000005,
0xE7CFEEEA,
0x000000F4,
0xF6F1DBE9,
0x000000EF,
0xF8F4E4FF,
0x000000EB,
0xB696ED17,
0x000000F7,
0x1ED1DD18,
0x00000019,
0x0AEBD00E,
0x0000000E,
0x14F6E3E9,
0x00000002,
0x041A02E1,
0x000000D6,
0x0CF5F5F9,
0x0000000D,
0xFA04F506,
0x000000F5,
0x0BFC1408,
0x000000ED,
0xE4FE0C15,
0x000000F0,
0xCFEE0507,
0x00000002,
0xDEE8E3FA,
0x000000E5,
0x08FBEAFB,
0x00000009,
0x120C00DE,
0x000000F6,
0x1F0A0FFD,
0x000000E7,
0x0A2E2221,
0x000000D0,
0xD9D10405,
0x000000DC,
0xE6F01019,
0x000000FB,
0x06D20027,
0x00000014,
0x14EBDF1E,
0x0000001A,
0x1D03C015,
0x0000000F,
0xE300100A,
0x000000BC,
0xFC0DFAF4,
0x000000E3,
0x29280704,
0x00000021,
0x2319F709,
0x00000014,
0xC0D8DDED,
0x000000DB,
0xFB070F05,
0x000000F0,
0xF7061700,
0x000000DD,
0xD002FFF7,
0x000000AF,
0x000B0E03,
0x000000E9,
0x1AF4E6F6,
0x0000002B,
0x1BEEF0F6,
0x00000041,
0x1304DBD2,
0x00000024,
0xB9BCE7E6,
0x000000AF,
0x32210B0F,
0x0000001E,
0x1A03FD0A,
0x00000011,
0x001305EE,
0x000000D9,
0xDDF9F706,
0x000000E4,
0x1DFAF1FD,
0x0000000E,
0x1F0B0108,
0x00000006,
0xECFD1106,
0x000000EA,
0x3C29E7EA,
0x00000028,
0x2518DAB8,
0x000000FD,
0xCECEA5C0,
0x000000C6,
0xEAF5DDEB,
0x000000E6,
0x1019F9F6,
0x000000EE,
0x0907FCFA,
0x00000001,
0x09FBFD00,
0x00000013,
0xEEFAD6EA,
0x00000005,
0x92C0D802,
0x0000009C,
0xD7F6FC06,
0x000000DF,
0xE3F5F2EE,
0x000000F2,
0xFB0919E8,
0x000000EF,
0x0719D0CB,
0x000000EC,
0xF2BEE617,
0x000000EA,
0xF0D400F6,
0x000000FA,
0x05D2C6FD,
0x000000E4,
0xE8E92823,
0x00000008,
0x00284706,
0x000000DC,
0x1B260AC5,
0x00000009,
0x0EF1F8E9,
0x0000000D,
0x0CEC0F17,
0x00000003,
0xEFFE14FD,
0x00000003,
0x0A1F06DF,
0x000000FF,
0x1DF5E3F4,
0x000000F5,
0xEAFE0730,
0x000000ED,
0x050703EF,
0x00000001,
0x0210F0C9,
0x00000004,
0xF2E9B2C6,
0x00000009,
0xF1CCC5E9,
0x000000EE,
0xF8E3EBF2,
0x0000000A,
0x1710F105,
0x00000001,
0x03FBDBFF,
0x000000F4,
0xF7F0D4F1,
0x000000DC,
0xFAE4EC04,
0x000000E5,
0xDEFBF4FC,
0x000000E3,
0x0808FCD5,
0x000000EA,
0x08D70003,
0x00000004,
0x01D3230D,
0x000000F2,
0x060820E8,
0x000000FE,
0x1F0C06F9,
0x0000000E,
0xE4E3FEEE,
0x000000E8,
0xF4F3E6E4,
0x000000E8,
0x0804FDEE,
0x000000EE,
0x250DEDE0,
0x00000010,
0x00E8EAE5,
0x00000025,
0xD0E5EFF0,
0x000000D4,
0xE5E3D6C4,
0x000000F1,
0xE3EBE9E4,
0x000000C8,
0x0B271E15,
0x000000E5,
0x292C10EB,
0x0000001F,
0xFAF9F4F5,
0x000000EC,
0xDBF40C00,
0x000000CC,
0xD8F10C08,
0x000000CB,
0x0921111D,
0x000000E5,
0x0F112229,
0x0000000A,
0x0B07FC07,
0x00000000,
0x04F9F9F8,
0x000000F8,
0xF90C08F9,
0x00000006,
0xEAEDEFFB,
0x00000002,
0xF0D1EBD7,
0x000000F7,
0x2F2C0604,
0x0000001E,
0x1612FC10,
0x0000001D,
0xE2E6EFEE,
0x000000DF,
0xF1FAFEF1,
0x000000E4,
0xE90803EC,
0x000000F0,
0x07181803,
0x000000FA,
0xFE150C07,
0x0000000A,
0xFDEE0CEE,
0x00000004,
0xDFFFEBFC,
0x000000DC,
0x202D0309,
0x00000007,
0x0EECE5E3,
0x000000FD,
0x1E1101E6,
0x00000019,
0xF7F40202,
0x000000F1,
0xD8F31622,
0x000000F2,
0x110A010B,
0x00000011,
0x0E16FFF0,
0x00000021,
0xF0E7F3E5,
0x000000E7,
0xD5D0D1DC,
0x000000C5,
0xDCDFC5BD,
0x000000F2,
0xEBD0DBD5,
0x00000008,
0x0B18190F,
0x000000DC,
0xCCC90FFA,
0x000000E7,
0x14BEDEF6,
0x0000000A,
0x08E3A2E7,
0x000000F7,
0xEDF2F5E1,
0x000000EB,
0xE4DBE9E4,
0x000000FA,
0x151E0BDF,
0x00000012,
0x0F0BF6F4,
0x000000D7,
0xEE101212,
0x000000E3,
0xEC0609FF,
0x00000004,
0xCFF20315,
0x000000E1,
0x08D1131E,
0x00000016,
0x140EC805,
0x00000028,
0x1720E7EE,
0x00000012,
0xF70C00F0,
0x000000E9,
0x171002CD,
0x000000F5,
0x10302401,
0x000000C4,
0xD1301D14,
0x000000B5,
0x92F110FC,
0x000000E2,
0xECCDF1F9,
0x00000006,
0xDEC7E708,
0x000000FC,
0x09EEC5EA,
0x000000FF,
0x03D9B5F5,
0x000000F8,
0x09EBF714,
0x000000FE,
0xFF13302B,
0x000000FC,
0xFA0AEEED,
0x000000F1,
0xF9D5E8EB,
0x00000008,
0x1B06DBD7,
0x000000EF,
0x1232F80D,
0x000000D6,
0x09341D33,
0x000000D8,
0x1F300DF0,
0x00000006,
0xF21821E7,
0x00000010,
0x20CCCFD3,
0x00000011,
0x2908A79F,
0x000000FC,
0x1A05DBE6,
0x0000000F,
0xD5EF0AF6,
0x000000F9,
0x11D30510,
0x0000000C,
0xF3D6BB06,
0x000000E7,
0xF4DCCAF4,
0x0000000D,
0x03F9F309,
0x0000000E,
0xF3030CF6,
0x000000EA,
0xF00F1915,
0x00000006,
0x0AE32D1D,
0x000000EC,
0xF0D6FB0D,
0x000000DD,
0xEDDDD8DE,
0x000000E9,
0xFE090EFC,
0x0000000C,
0xFFFB0907,
0x00000005,
0xE81B0B0A,
0x0000000D,
0xE9131BFB,
0x00000018,
0x1A0D05EC,
0x00000014,
0x08DCE6F3,
0x000000FF,
0x01021A12,
0x0000000A,
0xEEE3F401,
0x0000001D,
0xE6FFEFEC,
0x00000010,
0xE2F5FBE6,
0x000000FB,
0x150EFD00,
0x00000011,
0x0503D1E3,
0x00000001,
0x05DCF0EC,
0x000000FC,
0xF0EAFA03,
0x000000FB,
0xFCE6F5E6,
0x000000F8,
0x0A030F2A,
0x00000005,
0xEBDAE9FC,
0x000000F1,
0xDDFB0F04,
0x000000CC,
0xC4F3142A,
0x000000C3,
0xD3C6FA22,
0x000000D2,
0xF8E7FBF6,
0x000000F3,
0xF0E5F7FE,
0x00000000,
0xE4D1EA00,
0x0000000F,
0xF6E0E0EA,
0x00000010,
0x120DF0E0,
0x0000000C,
0xF2040109,
0x000000E1,
0xD71409F4,
0x000000D4,
0xAA161803,
0x000000D6,
0xE41D2108,
0x000000E2,
0xF005F70A,
0x000000F9,
0xF808F1CD,
0x000000F7,
0x210AE7D2,
0x000000FF,
0x2A13DED0,
0x0000001E,
0x2F1BF0AE,
0x00000017,
0x100F22CB,
0x000000FE,
0xE9F702EA,
0x000000E1,
0xF8E4F5E1,
0x000000ED,
0xEDF30DF9,
0x000000F4,
0x0223313B,
0x000000FB,
0x040C06FF,
0x00000000,
0xF8F8FF01,
0x0000000D,
0x13161F23,
0x00000008,
0xDCDCF1E6,
0x000000F9,
0xD1E7FDF9,
0x000000EF,
0xF4ECF8FC,
0x00000012,
0x0206E912,
0x00000001,
0x10201C19,
0x0000001A,
0xE5F100DC,
0x000000EC,
0xC3BDBDBA,
0x000000CE,
0xDAE4FDFD,
0x000000EA,
0xF9FAD3D3,
0x000000DE,
0xC8C5CBD9,
0x000000DE,
0x00FAE8FE,
0x0000000B,
0x0E23170D,
0x000000FC,
0xFC0B08F6,
0x00000003,
0xE80CFD07,
0x000000F1,
0xF2F9F911,
0x000000E4,
0xF6E50204,
0x000000F2,
0xFCF3E114,
0x000000EE,
0xFC03F420,
0x000000DE,
0x110210FD,
0x000000FE,
0x02F3F209,
0x0000001A,
0x14F10A19,
0x0000001E,
0xF403FBF9,
0x0000000E,
0xF000F3F2,
0x000000FA,
0x091AEFE7,
0x00000006,
0x1F16D4FD,
0x00000015,
0x14FFCA17,
0x0000000D,
0xCFDE0109,
0x000000E9,
0xD4F41027,
0x000000F1,
0xDEED0605,
0x000000DC,
0xEB1919E8,
0x000000BC,
0x1319FBE0,
0x000000DA,
0x190BF6D0,
0x000000DD,
0x090E0730,
0x00000012,
0xBFF4E2D7,
0x000000DC,
0xFE21D1A4,
0x000000E5,
0x061DF381,
0x000000F0,
0x0AEDE4B9,
0x000000EC,
0xECF2F70A,
0x000000FE,
0x0C1005EE,
0x00000006,
0x00F6EE0F,
0x0000000C,
0xF4E7EC1B,
0x00000009,
0xF000DDF7,
0x000000F3,
0xFBF5EFED,
0x000000FE,
0xCDB3E2F3,
0x000000F8,
0xD7E3F8FA,
0x000000EB,
0xD0042015,
0x000000EB,
0xD40D1E17,
0x000000E4,
0xEE212A16,
0x00000014,
0x03F8020A,
0x000000CF,
0xD1F822F7,
0x000000BF,
0xFB1711EE,
0x000000CF,
0x0E2A0ABA,
0x000000ED,
0x1F1C19A9,
0x000000F1,
0x0FFFD9D7,
0x0000000C,
0xF2FE0A0D,
0x000000E9,
0x1019160F,
0x00000000,
0xF80C02EE,
0x000000DC,
0x0A05EBF1,
0x000000E1,
0x222208F4,
0x00000006,
0x18F0E7D9,
0x0000001A,
0xDED7E7EB,
0x000000F6,
0xCDE50A0B,
0x000000DA,
0x0D12150B,
0x000000C9,
0x221A0E0D,
0x0000002C,
0xECFCF3EF,
0x00000017,
0xB293AAD7,
0x000000ED,
0xFAE7F70C,
0x000000F6,
0x07FD05FA,
0x000000F8,
0xE7E0E4F1,
0x000000ED,
0xD5ED040F,
0x000000EF,
0x16151C12,
0x000000F3,
0x0D0DFEF4,
0x000000E2,
0x01082005,
0x000000F0,
0xD3FCFF06,
0x000000EA,
0xD6E100F6,
0x000000DD,
0xFFF1C6DF,
0x000000EF,
0x1E03DFE5,
0x0000000B,
0x0B050206,
0x000000EA,
0x03F300F3,
0x000000E5,
0x1A0E09F2,
0x000000FA,
0xF0D2EB01,
0x000000F9,
0xBF9FE1F4,
0x000000F4,
0xC3CFF2FB,
0x00000003,
0xE1E2EEFB,
0x000000EF,
0xF6E90506,
0x00000025,
0x05EADEF3,
0x000000FE,
0xF8031E23,
0x000000F4,
0xF90A231C,
0x000000F2,
0xF9E7F8EE,
0x0000000E,
0xFA060B1B,
0x00000007,
0xF3FDFC13,
0x000000DA,
0xD5CBD0E5,
0x000000DE,
0x14E5E2F8,
0x0000001C,
0x09FEE8F3,
0x0000000B,
0x20240D05,
0x0000000A,
0x03291613,
0x000000D2,
0x15F3E1BF,
0x000000F0,
0x0B171D0C,
0x000000FC,
0xFDE6F2FC,
0x000000E9,
0xFAF5E3E9,
0x000000F8,
0x17FADFF2,
0x0000000A,
0x171F190D,
0x000000EB,
0xF9FD131C,
0x000000F7,
0xFE0E0C0C,
0x000000D5,
0xE112100A,
0x000000FB,
0xEAEE11F6,
0x00000006,
0x02F8D7D7,
0x00000001,
0x011E2DE9,
0x000000D5,
0xFBF6FD25,
0x00000005,
0x01011D0C,
0x000000FC,
0xFF231907,
0x000000EF,
0xEAF80AF4,
0x000000E7,
0xBFC4DAD9,
0x000000F6,
0xFBF9F1F7,
0x000000E4,
0x280CFDF4,
0x00000030,
0x20030105,
0x00000026,
0xCEE9EDF9,
0x000000CC,
0x0600EDE3,
0x0000001D,
0x1804F1F2,
0x0000001D,
0xECFCD8D3,
0x000000E3,
0xEFF2D2BE,
0x000000D2,
0x07F3EEDB,
0x00000027,
0x10EDFBE7,
0x0000003B,
0x2CFAEEEE,
0x00000048,
0xFA00E0D7,
0x000000F5,
0xFED6C3EB,
0x000000D5,
0x0307FBF2,
0x00000023,
0xFD00F3F1,
0x00000004,
0xFB0BF6D7,
0x000000E4,
0x02110509,
0x00000002,
0x180EFD06,
0x00000017,
0xF4FBEDF5,
0x000000E0,
0x01F4E9FB,
0x00000000,
0x0C00DAED,
0x00000017,
0xF0DACEF8,
0x000000EB,
0xC9D0C3BA,
0x000000E9,
0x05F6F0E9,
0x00000007,
0xEFF50608,
0x000000F9,
0x0C131405,
0x00000009,
0xDF001115,
0x0000000A,
0xDEDDE807,
0x000000D6,
0xA0AECEC5,
0x000000CA,
0xD9CAC0B9,
0x000000EA,
0x12120905,
0xF90DF909,
0xE001F7E6,
0xE0EAD4D6,
0x0816F0F3,
0x180BFD0F,
0x0EF9F803,
0x02FAFF0B,
0xF6070400,
0xF401F900,
0x1201180A,
0x040B0808,
0xEEF60E1D,
0x0409F8FC,
0x27F00406,
0x0FF81A18,
0xEF12160D,
0x0515FD08,
0xFDF4EDF6,
0x0D0CFFF6,
0xE6FB02F4,
0xD9F1FBFD,
0xE9F3DACA,
0xF002F1F6,
0x0F0BF4F2,
0xC7E502FF,
0xCDF8FCDE,
0xEDFF0EED,
0xF623F806,
0x06061A0A,
0x0B080714,
0xFCE2E2E8,
0xDDEBF1F6,
0xF708F0F8,
0xE21C1EED,
0xFC05E308,
0xFEE7E3F6,
0x1F15F702,
0xF4090812,
0x0B10E4F3,
0xDE0809F9,
0x0BF9FEFB,
0x040ADDE8,
0x09E5F90D,
0xFB0E1314,
0xD7DFEEFF,
0x02F5EAF1,
0x0708EFEC,
0x0BE9F500,
0xECF20319,
0xEC02FA02,
0x00EAF2DC,
0x0FF5FD07,
0xF3F6ED0E,
0xF5FAF022,
0xFAEFDCF1,
0xEA02F60E,
0x0A0E1AF6,
0x020D0502,
0x06FD09FD,
0xE602F613,
0x0DF623E5,
0x04FD02F2,
0x1BFCE4E5,
0x0BFCF71F,
0x05DA2223,
0xF20A0804,
0xFFF617F2,
0xEFF1F1F1,
0xFB01F9FB,
0x091D0EFF,
0xCFDEDA1A,
0xD2FFE2DA,
0xFFFEE3B6,
0x0E02F0F4,
0xF5F01105,
0x00FDF1FF,
0x2B110B18,
0x020E1A23,
0xFF061818,
0xE5000700,
0xF4E103ED,
0xF8FC01FB,
0xD40B0E18,
0x1306F6EB,
0xF0C4DDE2,
0xEDE8F6EB,
0xE3EEE5F5,
0xE3E4EDEE,
0xF309FCE6,
0xEAF004DA,
0xCDECE9ED,
0xF10703E5,
0xE8110DF1,
0xDDF8FFF4,
0x1711EFF5,
0x09E9EAE6,
0xDCF9FF0C,
0xE00EFA04,
0xEC14FCEB,
0xF9FE0F11,
0x09060EEE,
0x0B1D00F4,
0x000600FE,
0x130AF2F8,
0x0BFDE9EF,
0x01F7071E,
0x0508F9F6,
0xFDF9FF06,
0x00020704,
0x0604FAF9,
0xFC02F90A,
0xFBF20A04,
0xF9F5EFEB,
0x10F4EFF2,
0xF1FD0816,
0x190F19F8,
0x040BFEFC,
0x11EDC0EB,
0xF9E9060C,
0xFAEAFD0E,
0x0B0E0019,
0x0A0C08DE,
0xF7031006,
0x2A010C08,
0xD0EAEF08,
0x02E7FFDE,
0x0E141904,
0x001F05F7,
0xE9FFFA0E,
0xD0D0F0EC,
0x08F918D4,
0xF0FFFCFA,
0xC5E1F0F0,
0x052513E4,
0x0BFBF1CC,
0x11FAF829,
0xFBF31B17,
0xF715191D,
0x08FF03E6,
0xEFEDEE01,
0x0103FADE,
0x0802DD06,
0x0CFE0E1D,
0x0A0C0715,
0xEAF60F11,
0x1708FAED,
0x00F4E9FD,
0x0508140F,
0x292DFBFF,
0xE8181208,
0xFB0C1ACB,
0x0906E5F3,
0xDDF113F6,
0x00EFEFD9,
0xF5FBF2FE,
0xE5F6FC10,
0x0305F6EC,
0x0902EDFF,
0xF7E0EB00,
0xF3100606,
0x1F170FF4,
0x06FFD2EE,
0x10F5EFF0,
0x04F80803,
0xF700FD04,
0xF7DE0711,
0xD6F9F5F9,
0x04D0E0C3,
0xE5F2030A,
0xEC060E0C,
0xD5D6DEFB,
0x060F0AD5,
0xFB280BFC,
0x1D08FC01,
0x1B0EEAED,
0x08F5F107,
0x06F8091C,
0x04FBF1F6,
0xE9E6ED1D,
0xE0EF1A09,
0x13100EDA,
0x1000EB12,
0xF3F5FD12,
0x06F7FCFA,
0xF302FAE5,
0x0604030B,
0x0A0A2214,
0x0BBFD8F1,
0xF401E9F5,
0xF5E8EDE3,
0xF7F1E200,
0xFBF31910,
0x140904F5,
0x0C08201A,
0x170B01F7,
0x1DFCE401,
0xDAD9FF0C,
0xE206FE09,
0x1D252603,
0xF8FDFBFC,
0xFF0202FE,
0xFBFAFDF8,
0xFA0403FE,
0xFAFBFE03,
0xFDFDFB01,
0x00020101,
0x03FBFD01,
0xFD0106FE,
0xFBFF0104,
0x0100FA05,
0x04020305,
0xFEFDFEFB,
0x01FD05FA,
0xFFF90402,
0xFA01FDF6,
0xFBF904FD,
0xFFFEFDFB,
0x01FD0105,
0x00FA04FB,
0x05FAFDFC,
0xFE030507,
0xFCFA03FC,
0xFF0202FA,
0x01F9FAFB,
0xFAFEFC00,
0xFFF8F8FA,
0x0101FB02,
0xF9FF03FA,
0xF8FCFB04,
0xFEFAFD00,
0xFC01FCFB,
0xFFFA00F9,
0xFE01FEFB,
0xFEFEFCFC,
0xFF0200F7,
0xFA04FDFE,
0xFD01FB01,
0xF9050104,
0x00FD00FF,
0xFEFBFBFE,
0xFEFBFDF8,
0x03FCFCFF,
0x0202FA03,
0x0303FCFB,
0xFF04FC00,
0x01FB00FA,
0xFB00FA02,
0x04FBFAF9,
0xFFFF01FF,
0x00FEFB03,
0xFCF800F9,
0xF803FE01,
0x010300FF,
0xFCFDF9FF,
0xFBFB0200,
0xF9FBFD04,
0xFAFFFFFB,
0xFEFDFCFD,
0xF9FE0102,
0xFB01F902,
0xFEFFFFFC,
0xFF00FF02,
0xFE04FEFC,
0xFD0102FC,
0x00FFFCF9,
0x0002FAFD,
0x01FFFB03,
0xFA0302F9,
0xFE03FFF8,
0x0003FE05,
0x010000FC,
0xFAFCFFF9,
0x03FFFEF9,
0x0403FE02,
0x01FD0405,
0xFD02F901,
0xFC0002FA,
0x03FF0404,
0x05FFFFFF,
0x01F9FB02,
0xFDFC0000,
0x03FF0101,
0x01FFFD03,
0xF8F6F7F9,
0xFE00FBF9,
0x02FC05F9,
0xFDFD03FE,
0xFDFDFDF8,
0xFEFDFC01,
0xF7FEFD02,
0x03FDF8FA,
0xFFFA00FF,
0xF9FC0100,
0xF901FB00,
0x01FDFDF9,
0xFA02FBF9,
0xFF00FDFE,
0xFAFFFFFC,
0xFBFEFCFB,
0x1307FAF1,
0xF80202FB,
0xF6E8E4EE,
0x05E7F8F0,
0xFCF3F8FF,
0xEDF7FF15,
0x00090BDE,
0xF903FE05,
0x0E040202,
0x16080007,
0x04FC060A,
0x110B0C08,
0xF1EDFC02,
0xE5E4D7F4,
0xEEF0EDE8,
0x06F70604,
0xFCEF02F7,
0xDEEC000E,
0xF2111106,
0xF312100A,
0x04190006,
0x1F08EBDD,
0xF5F4D3FF,
0xED0CF3FC,
0x080602F1,
0xC6F5FFF8,
0x0B0C01D0,
0x0107F4F0,
0xEE0DFBF5,
0x17FF0206,
0x0A07200A,
0x07FFEA08,
0x07F2F701,
0xF6FEF801,
0xF705FC10,
0xECF8090A,
0x0B0819F1,
0xCFEBEDFA,
0xF80D04FE,
0x06F6EEE9,
0xE8E1F21C,
0xF609FDE2,
0xFB08EAE9,
0x08F9EFDB,
0x080B0A01,
0xE9E4F1F1,
0xEEF300D8,
0xEF04ECF8,
0x16F5F4EC,
0xE905F516,
0xEAF51303,
0x0913FCFC,
0xFB0000EF,
0xED181605,
0x040C17F9,
0x0A1F1405,
0xD6DDFDF9,
0xF605F3E7,
0x0EFAF001,
0xF60D1912,
0xF80CF5F4,
0xDFD1EEF4,
0xE9E00CE9,
0xFAE3F2E2,
0x0415F604,
0x1006ECE6,
0x13E9EAFC,
0x03EBF807,
0xED01F110,
0xFBF8FFFF,
0xFBF0F3F2,
0xFBECEBFA,
0x0E0BE4FA,
0xFEE3F2F4,
0xDDE2E8ED,
0xE6D9C9E7,
0xEEF0FCF5,
0xE700FBF4,
0x210A03F6,
0x0BFE01F1,
0x0615E305,
0x0BF6F0FC,
0xF6E9F911,
0xFCF60B05,
0xEBFBEFFB,
0xEAF80D0C,
0xF30609CF,
0x07F0DEE0,
0xFB03050E,
0x08020E10,
0x0407FDE8,
0x070E04F7,
0x0BF4F2ED,
0xEDECFAFB,
0xF5FC0100,
0x10FF01FB,
0x0302F10B,
0xFB0403FF,
0x0A0CF9F0,
0x0401F800,
0xF0010409,
0xDCEBF4EB,
0x1307EDF5,
0xF0FC08F1,
0x00EEEFE8,
0x1608F5EB,
0x00FE0112,
0xFDF70703,
0x0D0100F8,
0x00FFFC01,
0xFAF4F60C,
0x040A03FF,
0x03FE1504,
0xFB110E12,
0xFCECFCF9,
0xF8F4F8F1,
0xF6FEDBF7,
0xE8FEE7EF,
0xFE01EFF9,
0xFAF2FDEA,
0x09FCE909,
0x1A01F0FD,
0x030DFB08,
0x060C060F,
0x190A2BF7,
0x03F80511,
0x0E020907,
0x0E070607,
0x14E7FAF5,
0xDCE9EC09,
0xF608F802,
0x0DEDE6E8,
0xFE030407,
0xFF1701EC,
0x1D0CDFF1,
0x011600FB,
0x1812F613,
0x09F50E1E,
0xFDEF080C,
0xF4FEECE3,
0xEE04E0F8,
0xF4E90AF8,
0x001510FD,
0xEAEEFBF4,
0x090B02F8,
0x1813F5E9,
0xECEDF604,
0xE3F2100E,
0x2506E9E3,
0x120A030D,
0x0E100908,
0xFC131AF7,
0x1B0CE8E7,
0xF9FA08F8,
0xFB01FE19,
0xE9EBE8EA,
0x08F50605,
0xF80203FA,
0x03F6E6FD,
0xF00F0A01,
0xFE17FC1E,
0x08F71EF1,
0x10FCFFFA,
0x0705F3FA,
0xFDFCEDFA,
0xF1F1130D,
0xF7EEF601,
0xD5ED00F1,
0xFF03DFE4,
0xF5EBF102,
0xFB070B1A,
0xF7FDF2F9,
0xFA0EFFF6,
0xF90A07FB,
0x02F9F0F7,
0xEFFE0301,
0x0EE6E5F8,
0xEBE3FD03,
0xF3ECE21A,
0xFDFEF4E2,
0xF0FFEFFA,
0xE6E8FBFC,
0xF916FCFC,
0xF3F8F8F9,
0x08E7E7FF,
0x05020AF1,
0xF4EDE10E,
0x01FB09FD,
0x20DDF401,
0xFE0408FA,
0xFDFBF1ED,
0xFB0BF3F8,
0xEEF3F900,
0x02F3F4EC,
0x1A100BF9,
0x16EEFCF6,
0xF7F0FA11,
0x0DF40EF8,
0xE70C0C0B,
0x110C1C02,
0xF9FC0E07,
0x1AFB080A,
0xFE010215,
0xF703FE13,
0xF4F9EEF0,
0xF3E3D2E6,
0x03010108,
0xFF020A01,
0xFA140006,
0xFEFFFEFB,
0xFDFDFDFB,
0xF703110E,
0xEDF1F9FD,
0xFB0EF50A,
0xEE05F806,
0x0809FE0A,
0x20FB06EA,
0x1DFCF9E3,
0x10FAFA23,
0x12000416,
0x0CF2FB00,
0xFEFA0117,
0xFE04140E,
0x01140C03,
0xDDEFF8FF,
0x29FA0216,
0xE9E7021E,
0xFA0B11FE,
0x070201F1,
0x07F804F0,
0x0AF3F6FC,
0x12ECF118,
0xF8061810,
0x0C0AF2FC,
0x0302FCE8,
0x1807CDEF,
0xF3D9CFF8,
0x331F07FD,
0x1CF7F70D,
0xEE121C21,
0x031A170E,
0xFFF1D30E,
0xF0F10D08,
0x17170C09,
0x07FC0E14,
0x04F10207,
0xE9F5D209,
0xEBEA16FE,
0xE5EFF3EA,
0xF9DEF5F9,
0xEAF4EF16,
0xEAD3DE05,
0x100508EE,
0x3502FAF2,
0x0CF5F8FE,
0xEACAE92E,
0x0FFD0A06,
0x010C1006,
0x14001902,
0xFE0AE3E4,
0x050B01F7,
0x0E3A06F6,
0xF6F3EA10,
0x071D05F6,
0x1AF60007,
0xDD0C0F0A,
0x0013170F,
0xF50409FA,
0x02080405,
0xFD01FC01,
0x0B181617,
0xFBFE110A,
0xFB0A2208,
0xEC140F02,
0xF2EAEAEC,
0x00182E0E,
0x150AEE03,
0xFF0FE9F7,
0xE9F0F110,
0x130B0CEB,
0x071600F8,
0x03F2FEFA,
0xF616F4FE,
0x2DFAF9FD,
0x050D051A,
0x0EEDEE0D,
0xE9E0EE16,
0xF2F5EAE7,
0x021900FA,
0x1704DFF8,
0x0DECF60E,
0xF5E9FE1F,
0xDDE3F9F8,
0xF600F3EF,
0xECEDF2DB,
0xF7F5ECFD,
0x0CEF0EF5,
0xE8080309,
0xEDE4F2FB,
0xFDCEF3D3,
0x070C0508,
0x140D11EE,
0x252EFC04,
0x10F9FC0E,
0xF6EB0211,
0xFEE1E6D6,
0x06F9091A,
0x030301F9,
0xF8FDF903,
0xFEFEFCF1,
0x07020602,
0xFCF7FB02,
0xF4FE0406,
0xF9DBF1ED,
0x12FDE8E4,
0xFBEFE7DC,
0xF6F80429,
0x0204F0FA,
0x0AEE04FC,
0xF6180AFB,
0xFD0AF414,
0x0C00FBDA,
0x1E0510F6,
0x05240906,
0x03FD0507,
0xC5F2101B,
0x150CF1E8,
0x180D1308,
0x29122610,
0x00F9FBF5,
0xF1FEFA13,
0x1403FDEC,
0x1A19FB15,
0x1900EA02,
0x08FB00FB,
0xFC00F7F1,
0x0C0D0018,
0x05011DF4,
0xEF091915,
0xFEFAFFFF,
0x07FBD9F5,
0xF3F307F2,
0x0006FB03,
0xFB1C1AF6,
0xFD171D12,
0x211D172C,
0xF4021808,
0xF6DEF601,
0xFB03FF07,
0x2810F8E3,
0xFF1B150D,
0x1E141BE2,
0x0D21F8FB,
0xFFFC0415,
0x02FB0EF8,
0xF6FC07EA,
0xE2FDF0F1,
0x11FAF7E5,
0xF6EFDFFC,
0x02F4DEF0,
0x0AF71F03,
0x041B1B15,
0xFA0F1D10,
0x1FF9F8EB,
0x1F19EEF5,
0x07F200FC,
0xF7EBFFFF,
0xE721E407,
0xFFDAF1DF,
0x040E0A03,
0xEFFF1407,
0xEAFC06CF,
0xFAF7F9FF,
0xF9150904,
0x0DF804FC,
0x2102F1FC,
0x09D5EF22,
0xF7E2162B,
0xEBEFDAE2,
0xF0E3E6E8,
0x1ADEEE11,
0x1D0BF90C,
0xF1F41019,
0x00E40716,
0xF9E60208,
0x110B08E4,
0xF901F82B,
0x04161F00,
0x15D60306,
0xF8050B01,
0x0CFC1D17,
0x0FFAED0E,
0x04E71DF4,
0x0BE4F10D,
0x0E082C1D,
0xFA0F0AF5,
0x0BFB0BFB,
0xF3EB0808,
0xF7181A0B,
0x10131A0F,
0xFB00F9EF,
0xF4EFF105,
0x01F4F60A,
0x0707F9F0,
0x04FE0107,
0x0B07090C,
0xEF06F5EC,
0x060006FA,
0x01F7FAF9,
0xFCFBFD0A,
0xF9EFFDFF,
0x00FFFDF2,
0xE90608F7,
0xEBE1E3E4,
0x12FFFCE3,
0xFDFFF4F9,
0x06E9F0ED,
0x0715F1E5,
0xF8FCEBE8,
0xDD060903,
0xEEFFEF00,
0x2813EB02,
0x0CFB0D1F,
0x01FA0D17,
0xF5181001,
0xD8DCEB0D,
0xFCFC00FC,
0x09F5EBEB,
0x06D8E702,
0xFB090800,
0x06F60406,
0x000E061A,
0x130A0CFB,
0x130FEEF4,
0x0D0E0916,
0x07151614,
0x091202D7,
0xF2EFD2E2,
0xE90E0EFB,
0xF5F7FEF1,
0x0EFBFAFD,
0xFBF9050C,
0x0A101415,
0xF806F60D,
0x04F5F202,
0xF1E7E6E7,
0xEAF80A01,
0x0815140C,
0x2BEDEAF6,
0xFF010912,
0xFBE30D06,
0xEF1215FA,
0x182307E4,
0x1615E916,
0xEAE50408,
0x18E5E3DB,
0xEAF1FB0A,
0xF0F0E9F4,
0xDF141B14,
0xFC271DF0,
0xF91AFFFE,
0xF1FE07D4,
0xDA06D6CB,
0xE303F1EB,
0x0E1501E5,
0xE90E03E3,
0x03D601DD,
0xDB000605,
0xFE1507FD,
0xEDEEEFF6,
0x0CE1F205,
0xFE00ED06,
0xFFF7FBFF,
0xF7DEE6E3,
0xF6F3EFEF,
0xEF0AFC0A,
0xF0F0F401,
0xE407DFCF,
0x0D07EAF9,
0x012107EA,
0xF8081505,
0xFF0B04E5,
0xF90DE9F9,
0xEFE9DCEC,
0x3115FD09,
0x01F705F4,
0xF2EBF3E8,
0x0D14D1EA,
0x0DEFFAFD,
0x19F612FF,
0x0E0CF5F6,
0x0A06FA0A,
0xF2F2D2DF,
0x11030BEB,
0xFEE7EE0D,
0xD4DAF7FE,
0x0BEF0808,
0x05001011,
0x00EB1413,
0x0DDEEAF6,
0xFCFBFE04,
0xFEFFFFFA,
0x03FCF9FB,
0xFB01FDFD,
0xFFFFF8FF,
0xFAFBFF01,
0xFC03FF01,
0x05FCFEFB,
0x05FF05FF,
0x03FBFCFD,
0x05FCFCFC,
0x01060000,
0xFFFDFDFF,
0xFBFE0304,
0xF9F804FF,
0xF700F802,
0x02FAFAFD,
0xFE0303FC,
0xFF03F800,
0x00FBFD03,
0x0201FFFE,
0xFE01FB01,
0x050200FD,
0x00FC0000,
0xFB00F7F8,
0xFAFAFCFC,
0xFB030100,
0x03FCFC00,
0x01020101,
0xFEFB00FA,
0xFE0505FF,
0xFCFAFEFD,
0xFFFEFC04,
0xFF0003FC,
0x03FCFCFC,
0x04FB03FD,
0xFAFEFAF9,
0x00030401,
0x01FB02FC,
0xFC05FDFE,
0xFFFFFB04,
0xFC00FD01,
0xFD04FC04,
0xF7050001,
0x02F8FD00,
0xFE00FDFF,
0xFB03FAFC,
0xFBFC0301,
0x000301FE,
0xFBFD03FF,
0xFDFBFBFB,
0xFE04FFFC,
0xFDFF02FD,
0xFAFAFB02,
0x03F802FD,
0x020201FF,
0x01FE01FC,
0xFEFDFDFC,
0x02FBF8FD,
0xFBF8FCFE,
0x010106FF,
0xFE01FBFA,
0xFE04FEFB,
0x04FDFDFB,
0xF9FAFF05,
0x00FD04FB,
0xFCFCFC01,
0xFFFE02FE,
0x0004FD02,
0x00FE00FA,
0xFF02FBFC,
0x02FBFBFE,
0xFF00F702,
0x0401F9FC,
0xFA00FDFA,
0x04FFFFFF,
0xFF000304,
0xFC05FB03,
0x01FB05FB,
0xFDFA00FD,
0x00FDFB02,
0xFEF9FBFE,
0xF8FF05FF,
0xFEFB02FB,
0xFDF7FDFE,
0xF9F9F8FC,
0xF7FB0103,
0x04FD04FF,
0xFFFF0204,
0xF9FCF9FC,
0xFDFAFC00,
0xF8FFFFF7,
0xFEFD00FA,
0xFB00FCFE,
0x0501FB04,
0x05FE0302,
0xFDFDF9FB,
0x03FDFAFE,
0x0203FDFD,
0xFE01FEFB,
0xF1F3FDFA,
0xF2E4EAED,
0x0416F200,
0x08F0F715,
0x0902EFED,
0x01EE0E03,
0x0406F9FC,
0xFD02FC04,
0x06070608,
0x00FE0405,
0xFCFFFDFF,
0xFAFE08F4,
0xEBF009FD,
0x0605DE22,
0xFCEEF903,
0xFEF00E0A,
0x0E17DEF0,
0x17FAF6FC,
0x1809EC0B,
0x14E4FC11,
0x00EBEDF8,
0x0BEDD714,
0x0BF9F3F4,
0xFD170103,
0x0FFB0FF9,
0xEAE7060D,
0xFFE5FFF5,
0x0AEF1908,
0xF30BEAF6,
0xEC0A1215,
0x1DFB0204,
0xE0E7E6EE,
0x080B0FEC,
0xF6FEEBED,
0x1A01FE04,
0x1000FCEC,
0x1408090D,
0xEAD61517,
0x0CEC1603,
0x040D1312,
0xF81210FC,
0x0BEAE5FA,
0xF6090B14,
0xE2FB1718,
0x0014FBF8,
0xFFF7FD14,
0xEE0209E7,
0xF3EAFAEB,
0x2E06F5E6,
0xF2000221,
0xFD020A34,
0xF1EAF1E4,
0xF8EA0AFA,
0x150B06DF,
0xEA060111,
0x09EAEFE4,
0x23011504,
0x1402EBF2,
0xE8EFF3FE,
0x110EDBFC,
0xF01707F7,
0x0DF30609,
0x04F215FA,
0x010FE004,
0x05FB08F5,
0xF503F6EE,
0x0407ECE4,
0x020505F4,
0x1613E8F0,
0xDEEA0916,
0xF6FC0107,
0x15070A06,
0x080501FF,
0x02F6FD03,
0x0707F2F6,
0xECEEC4DA,
0x13F9ED07,
0x1B0CEE0A,
0xFD13F803,
0x1A09F70A,
0xE90D0B0B,
0xEDFCEE09,
0x0BF7FDF3,
0x10E3F21D,
0xF5E5EB06,
0xF2F91D0C,
0x07FBEBD8,
0x0F0AFEF9,
0x0BD2FF07,
0x07ECF004,
0xF70AF4FE,
0xF7FF0DF4,
0x0606EEF1,
0xEA060B0B,
0xF5E804F2,
0x1704FAF1,
0xFB09F3F5,
0x170D08FC,
0xF9150BFE,
0x0B1B0FFF,
0xEBF6DFF7,
0xF90C04F2,
0xFAFFFC09,
0x05ECEAFD,
0x07F60D07,
0x00171018,
0x0704FD03,
0x01001401,
0x0107FFFF,
0x090401FD,
0x03000002,
0xFB020309,
0x1E1F0CFB,
0x000DFAFF,
0x01000BFC,
0x06F7FCE9,
0xF2F701F8,
0xE402F8F0,
0xD4F4F2F5,
0xFAE8F6EA,
0x04F5F0F4,
0xF508FAFF,
0xEC03F5F6,
0xFAFAF8F2,
0x08FAF3F3,
0x16F2FCF6,
0xE9F8F3F9,
0xF6F0F716,
0xE4F30FFD,
0xEB1D04FA,
0x0EF5ED0B,
0x00F3EDFA,
0x010118FD,
0xEF03F806,
0x010EFBDD,
0xFBF71BF8,
0x0FFEDC06,
0x10F6FEED,
0x02DEF804,
0xF80209F7,
0x0308F8FF,
0xEA07FDF5,
0x1303FF0E,
0xEF1F0EF2,
0xEAF9FFF2,
0x00EEFDF0,
0xEFEFECEF,
0x1105FBF3,
0xE6140F00,
0xFD08F9F4,
0x00FAF001,
0xFDF2F3F8,
0x05FEDF02,
0xFAF2F002,
0xF7FEF2F2,
0xF4ECF70C,
0x04F101DE,
0xF3ED10F6,
0xF50DE7EF,
0x070202EA,
0x16090503,
0xF1FDF8F8,
0x0E030DF1,
0xE801DF0E,
0x05E80816,
0xF9FA13EA,
0xEAF00305,
0xE70505EF,
0xF2F30508,
0x05FDF003,
0xEA161803,
0x0218EBE1,
0xF7F4EEED,
0x01E3EBF1,
0x060507F5,
0x12111DF0,
0x1BFFFBF1,
0xE9FBFC13,
0xF3FB011D,
0xF3081AE9,
0x0810F3FF,
0xE6F4F80A,
0x05FA0007,
0xFA0404E8,
0x01FBF3F7,
0x0D06FAEC,
0xF8F0010B,
0xE6F0FF0E,
0x0AF202F7,
0xED011B11,
0xEDEF07F8,
0xE4FBFC07,
0xF708F2F4,
0xF4170205,
0x08FEFEF9,
0xF0F6F1F5,
0x0EE4F7F2,
0xE4EB04F8,
0xEDF70201,
0xEAEDF4E7,
0xF7F8F105,
0xFDF6FEF4,
0x1A1209F1,
0x0701F30E,
0x0D16000C,
0x14F6E9E1,
0x00030523,
0x02FE0A05,
0x02080BFC,
0x11F8FBFE,
0xFE03030A,
0xFE05050C,
0x00060B08,
0xF8F11B09,
0xE417FDF3,
0xFFFC0C00,
0xF808FAE0,
0x0102F7E4,
0x0202F5F7,
0xEFEBF5F5,
0xF4E5EBF8,
0x04110A18,
0x0B00F6DC,
0xF3230D03,
0x111BF60A,
0xE508F808,
0x05FAFA19,
0xF90EF9EA,
0x13F711F2,
0xECFD0608,
0x08EC0E16,
0xE0FC0AE7,
0x02F7EDF0,
0xE103FFF9,
0x1108FBF3,
0x0FFFE3EE,
0xEF061422,
0xFF030806,
0x02FA0205,
0x04F7080A,
0x00F90B09,
0x05F6F412,
0xF0ECF3F3,
0x07150F00,
0xF4EDFC0B,
0x09120D1B,
0x05FC0D06,
0xF1DEEEF0,
0x101E1307,
0x02F80204,
0xF6F03716,
0xF4F1FAED,
0xF9F60911,
0x07F3FCFF,
0xFD0DF1F5,
0xF605FA02,
0xDD050CE7,
0xF300FA07,
0xF8F2F8E3,
0xE1E6F610,
0xECF506F5,
0xFFF5F5FF,
0xFA0D07F0,
0x06ECFD0F,
0xDFF40BFB,
0xFBF3070A,
0xFF0E0FF0,
0x05FC09F3,
0x0106F1FE,
0xE3FDF501,
0xF9FBF1F4,
0x080C02F1,
0xF8FB07F2,
0xE915ECFA,
0x1FF9F5FA,
0x21F709F7,
0xF5041BF7,
0x12F9F528,
0xD70FF6ED,
0x0DF40C0E,
0xF5121EF9,
0x0A0AFD0B,
0xF8F9F6F6,
0xF90DFFFC,
0xF3FAF0F2,
0x0C01FB06,
0x0901EB1E,
0x0906F00E,
0xFCFBE8EB,
0xFE04FCF6,
0x0EFFFCFC,
0xEBF0FDF6,
0x09FD0007,
0x181EEB03,
0x02F6EB0B,
0x0BF4F4F3,
0x08EAEF14,
0x0AEF251F,
0xEE020B09,
0x030E05FD,
0xFA03F602,
0xF0F5F102,
0xFBF10108,
0xF3EAE6F3,
0x01F0F2FA,
0xF4E7EAE8,
0xFFFFF9EE,
0xFAFFFA05,
0xFB0601FB,
0x0907FAFA,
0x0AF9F6F5,
0xFDFAFC0A,
0xF506050C,
0x020D040E,
0x15F60201,
0x03041304,
0xF205FF0A,
0x19020C02,
0xFE00F4FE,
0x0BEFF7F7,
0xFCFB0203,
0x0F15F704,
0x0901050B,
0x0B06FB11,
0x04FF0B00,
0xF6EDF6FA,
0x03F901F0,
0xF40A02F9,
0xFC0CFBFF,
0xFFF800EF,
0x060A1208,
0x210B03E9,
0xFBEE1F2B,
0x00F9FCF4,
0xFC0E0A08,
0xF5010200,
0x0200FEFF,
0x03FDEDFC,
0x0203FE08,
0x080007EF,
0xF501F7FB,
0xFEF01FFB,
0x04FD06FC,
0x17F7EB12,
0x20061007,
0xFBF1F108,
0x0A030A06,
0x0507F8EC,
0x06F9EDE8,
0x01132C28,
0xF3F7F3F4,
0x07FBFBF8,
0x010DFFF2,
0x0B070406,
0xE70C1A1C,
0xFFFAFFFA,
0xF80200FC,
0xEE0CFCFB,
0x0BFFF6FC,
0x0EF0F8FB,
0xEE0BFCFD,
0x020F0011,
0x0A060F02,
0xF900F2F3,
0xFCFAFC03,
0xEDFC0F04,
0xEE07FAF6,
0xFF0E05E9,
0x0018F206,
0xEB1100F7,
0x0BFE0601,
0x0907FF10,
0x0306F7FE,
0x05F3F204,
0x02FCFAF6,
0x010403FD,
0xEEFAFD08,
0xF412F6FC,
0x16FDFDE8,
0x09FA07F9,
0xF8121D21,
0xE9E7F009,
0x000B00FA,
0x0C05FAFC,
0x04FAFFF1,
0xF2FA160A,
0xFDF1FCF4,
0xFC01FB0F,
0x07000702,
0xFE07110C,
0x080B1212,
0x0BFB0307,
0xF8FFEFF1,
0xF7F5FBE9,
0x0C2009F1,
0xFF02F7F8,
0xFBFBEDEA,
0x1C15F50A,
0xFB04FE16,
0x0F10F9FF,
0xD9C7CED8,
0x13F7EEFD,
0xEDEB201E,
0x121A2009,
0xF1F2EDF5,
0x03FBF400,
0x030CFEFF,
0x00FD1312,
0x050915FF,
0x070E0202,
0xFD00FF09,
0x060A0112,
0x1E10F807,
0x04161616,
0xD9EC0513,
0xBC0AFAF9,
0x07FDF1C9,
0x0907FEE3,
0xCDEDEAE4,
0xEB0209ED,
0x250700F9,
0x16FAF816,
0x08000130,
0x02EA1319,
0xF0E3F8F6,
0x11210AF5,
0x191C0FEE,
0x1000E3FE,
0xF0E0FD02,
0x00FAEFFA,
0xE102D9E7,
0xFFF0DF10,
0xF3F1160A,
0xE0071909,
0x0905F4F7,
0xEFFE00F3,
0x0D1910F0,
0xE80406F2,
0xF6EFD0DC,
0xFD04F3F9,
0x06F3FF01,
0x04F20421,
0x0101090B,
0x02E8F2FC,
0x2316FCEE,
0x2115FBFD,
0x0CF1F913,
0xECF3FC1A,
0xFDF9FDF6,
0xEBE3EBFA,
0x1A11FBF1,
0xFCF8FF39,
0x06FD09FF,
0xE8F30604,
0x12E5DFD8,
0x07FBDDE6,
0x19100C04,
0xEFFEEA06,
0xFFBBE704,
0xDDEC03FC,
0x041412F1,
0x0B07F0E9,
0x1419EDFF,
0xFAF40C16,
0xBCE003FD,
0xEF00FAFE,
0xEF0BFBFE,
0x0709FC07,
0xE4F1FBE4,
0x05F4FEF3,
0xF4DAEAFF,
0x030B000F,
0x07FA050A,
0xF80F0A0C,
0xFD070A06,
0xD6EFEB06,
0xF80E07F4,
0xFAF5E8D2,
0xF1F7E9F5,
0x01F3F7EE,
0xC7F2F0EF,
0xF7DAE3D5,
0xF0E10D0E,
0xEE1DEAD5,
0xFDFBF6ED,
0x02F9E2FE,
0x0309FFE8,
0xE4F2DF01,
0xF5111209,
0x030EF6FD,
0xF6080304,
0xF6F800D6,
0xFBFEFF04,
0xE9050806,
0x11340DEF,
0x10F5F9F8,
0xE9FEDD1C,
0xD7E50CE2,
0x0009E8E2,
0x13F3EFF4,
0xFB0E0B07,
0xEAF7FFFD,
0xF5F2EA05,
0x010CFCF3,
0x0EFA01FC,
0x161A1B1E,
0x05FF06ED,
0x09020205,
0x08FCFF01,
0x00010905,
0x0BFCFC07,
0xFA030104,
0x13150902,
0xEEEA18FE,
0xF71007E4,
0x0705F9F0,
0xE7BFD800,
0xCCF8EDE4,
0xEE0EDCCE,
0xF4F4F9F3,
0xF408F705,
0x220CED0E,
0x08F4082D,
0x09F4EC04,
0xFF0B1B04,
0xFFE4EE0B,
0x0AFBFA1A,
0x0FE202F4,
0xE8ECFB15,
0xF90F09E6,
0x0E021BEF,
0xF60704F5,
0x000EF2F3,
0x12F3FD01,
0xF5F9F510,
0x08162816,
0x0B1D0BE0,
0x0EEFEEF8,
0xDE05FEF8,
0xEBF6E9C8,
0x0BEBCFE7,
0x06FD0607,
0x0419141B,
0xF9FB0EED,
0x0208F1F5,
0x0BFFEACF,
0xE6F80001,
0x0F1F0C02,
0x1C0416F6,
0xEFF8FC13,
0x0AF3F914,
0x121D110A,
0x2D1BF2F8,
0xEF12F526,
0xDEFE0F06,
0x14FBF8E5,
0xF2F6F307,
0xFBF2EE08,
0xC500FF03,
0x05291EFB,
0x0F0EE6DF,
0xC5E5FADB,
0x0B03D0BA,
0x00DFE709,
0x0615FFFE,
0xF0FE00F5,
0xFFC8DFDC,
0xE0ED01FE,
0x161A0E14,
0xEEF8FC0B,
0x06030606,
0xFF05E5F8,
0x00F2EBF8,
0xF6E1EAEE,
0xFEFBF1F4,
0xF5061901,
0x06E5EE01,
0xF1FDE4F0,
0x27EEF827,
0x08012403,
0xFE17E208,
0xF600FF01,
0x0711E1ED,
0xEFE7F6F8,
0x0B0FF8ED,
0x0E0506E6,
0x0BF1F506,
0x0BFCE902,
0x1AEA050B,
0xFCFD181E,
0xFE090406,
0x1305F8F3,
0xF4FBDFEE,
0xFC0B12F9,
0x11F6F508,
0xEEF81207,
0xECF5FEF7,
0x160B07FE,
0x28F20F11,
0x01FD020F,
0xFE080305,
0xF9FDF1FD,
0xFAFFF7ED,
0x0E0FFDF3,
0x19080212,
0x19161226,
0xFF01FB09,
0xFDFFFE05,
0x07FFFEFA,
0xF6FD000D,
0xFAF8FB0D,
0xFF0CFB05,
0xEDF50402,
0xF5E9140D,
0xF10611F4,
0xF404F2EF,
0xE6D1C8DC,
0xD8F8EAEF,
0xEDF6E9D3,
0xF1E5FC00,
0xEBF50209,
0x08FCFF03,
0x0AF6F513,
0x10F9D1E7,
0x0F211317,
0xFFE9EA06,
0xF505FC1C,
0x00F010ED,
0xF3FBE1FF,
0x04090BE7,
0x0BF203F5,
0x0F1310F8,
0xEF130814,
0x2C180605,
0x1E060203,
0x0407201C,
0x0902F7FC,
0x09EEE4E7,
0xDDDCF1EF,
0xF1EC03DD,
0x1409F7EC,
0x0EFF110D,
0x11191919,
0xFAF9FF0B,
0xF6FF0701,
0x0AFD05F8,
0xFB0B1A0B,
0x0D250D09,
0x0E1020F9,
0x0603080C,
0x02FB0104,
0xED180C1C,
0x20190C0C,
0xF7FB0021,
0xC6EF0014,
0x02FD0601,
0xE8FBF3F9,
0xFE07F4F3,
0xD5160A01,
0x031B1003,
0xF8F4E6E8,
0xEFFCEAE3,
0x0DF1CBAA,
0xFAEE07FC,
0xEBFBF719,
0xF5F209F5,
0xF6D1F3E2,
0xDAF20302,
0x192F1AFE,
0x070C0704,
0x0909090A,
0x0307040B,
0x04F2D0EB,
0x00EBF80C,
0x05F5F2F8,
0xFC0C200C,
0x000704ED,
0x09F0F0DB,
0x14FF0828,
0x070F1308,
0xE6FEF403,
0x110408F3,
0xF516F6F9,
0x0906F9F7,
0x18170A09,
0x041208FB,
0x06F9F8F2,
0x010EF9FB,
0x17141906,
0x2604130B,
0xE605FF14,
0x1B14EED8,
0xF5F4D4F2,
0x050705FC,
0x12FB1E1D,
0xFAE8DEFD,
0xF4E00210,
0x111B1102,
0x14E10218,
0xFDFE170C,
0xFFFCFEFC,
0xFBFD00FE,
0xFAF8FBFB,
0x00FCFDFD,
0x00FBFEFB,
0xFDFCF902,
0xFFFFFFFE,
0xFE05FC04,
0x02FC03FD,
0x02FE0401,
0xFFFCFDFB,
0xFC04FC00,
0x02010402,
0xFEFFFAFD,
0xFEF903FE,
0xFB01FBFC,
0xFFFE00FA,
0xFDFE00F9,
0xFE05FFF7,
0xFFFF0104,
0xFFFDFEFC,
0xFF03FCFF,
0xFD0002FA,
0xFD01FBFC,
0xFBFEFDFB,
0x02FC0000,
0xFAFEFC04,
0x0100FBFD,
0xFDFE03FB,
0xF904FFFA,
0x0400FBFE,
0xFDF900FD,
0xFFFF0100,
0x0304FAFA,
0xFE03FC01,
0x03FC00FF,
0xFBFF00F9,
0xFFFE02FD,
0x00FDFDFA,
0x0203FA04,
0x00FD0004,
0x030406FC,
0xFC06FDFA,
0xFB02FDFD,
0xF9FAFC02,
0x03FCFA01,
0xFFFB0403,
0xFC050402,
0xFDFCF8FA,
0x040303FF,
0xFBF804F9,
0x01F6F600,
0x02F8FF04,
0xFC0100FD,
0x02FBFD03,
0xF90101F9,
0x0705FC00,
0xFA06FEFD,
0xFEFA02FB,
0x05010204,
0x0100FF00,
0xFBF90503,
0x04FFFD07,
0x05F70300,
0xF8FEFDFA,
0xFDF9FE03,
0xFE0303FA,
0x010201F9,
0x02FA00FB,
0xFBFF02FD,
0x02FCF8FC,
0x00FE0100,
0xFB01F800,
0xFFFFFBFF,
0xFF00FE00,
0x04F9FAFB,
0xFB0703FF,
0xFA00FB00,
0x010304FB,
0xFFFEFAFC,
0x03FF02FB,
0xFBFDFEFE,
0xFD01FDFA,
0x02F9F7FD,
0xFBFC04FA,
0xFCFAFB00,
0x02FF04FF,
0xFCFBFA02,
0xFFFEF602,
0xFF01F9FC,
0xFC02FCFC,
0xFA0502FE,
0x0104FBFA,
0xFDF9FAFB,
0x00030300,
0xFEFAFBF6,
0xFE030002,
0x00FBFAFE,
0xFB0100F9,
0xFAFAFDFC,
0x0A0A1403,
0xE3F8F5F6,
0x18FCF6F2,
0x05FBFCF1,
0x04F70D10,
0xFC030F14,
0x0101F911,
0xFB030B08,
0x050B08FD,
0x160D0504,
0x1A03FAFB,
0x030402FF,
0xF1010B07,
0x0B102701,
0xFB11F807,
0xFCF0F608,
0xFAE7FAF1,
0xEFFEEEE7,
0x0FF6E8FB,
0xEBF208F7,
0x1101FDFF,
0xFE01EBF5,
0x1B051305,
0x1A12F01A,
0x04EE0F1A,
0xF9F0F906,
0xFFE6EB0A,
0xF0E01FFB,
0x17040707,
0x0CF10D13,
0x0BF7EF10,
0x00EFE715,
0xF40A2C03,
0xF9F9F8E1,
0x0A140404,
0xFFE0EAE1,
0xF5E2F507,
0xF3F73E0E,
0x1006FEF3,
0xFAF316F7,
0x0E030A16,
0xF0F109F9,
0xF8050511,
0xFAFFF901,
0xF9FDFCFC,
0xF5F61819,
0x18F2F9FC,
0xFDEAFFF4,
0xFC0A0714,
0x270DFA0D,
0xF60BFAF4,
0xFDFCF701,
0x14E30304,
0xF80208F7,
0xFCF702F1,
0x01F8F2F4,
0x0FFCFFF3,
0x010E0A00,
0xFCEFF80C,
0xF202DFD9,
0xF508EDFB,
0x0508EFF4,
0xF101F6F2,
0xF7FE0AF9,
0xEEF5F2EB,
0xF4F8F1F3,
0xFDFBF4E7,
0xF302EEF9,
0x0EF9EDE7,
0xF1FCE8FB,
0x0A0F0516,
0xE7EFEE12,
0xF60AFEEA,
0x08050AF4,
0xF7EFF3FB,
0x0CFAF0F5,
0x07EBFEFB,
0xED0DF614,
0x07FFFCFF,
0x090BF405,
0xFCF4FFFD,
0x03EC1207,
0xF50BF2F0,
0xEBFDE709,
0x0EFE04FF,
0xF7F8F8F9,
0xF0EBF300,
0x01170806,
0x0DDDEAF0,
0xFEF60909,
0xFC0808FC,
0xFA110100,
0xFE07FDF4,
0xE1FCFD03,
0xFCFF0BE4,
0x0106F1E4,
0x0A0C0808,
0x08E21E15,
0xE60516E8,
0x0F0805F1,
0xF6EEEBE1,
0xF3060DE7,
0x0408FDF7,
0xF4DDF1F3,
0xF0ECECF2,
0xF6ECEEF6,
0x0501FC0C,
0x00FF1500,
0x0107FCFF,
0x09FE0501,
0x0500FEFE,
0xFF04000B,
0x12010205,
0xFA09FF17,
0xFFFD0AF7,
0x0409F20C,
0x0B0900FC,
0x05D70003,
0xD400040C,
0xD9E7FAFF,
0x00F300F0,
0x0503FC00,
0xF207F7E5,
0xFA0CE7E6,
0x0E07FF09,
0x181BFADC,
0x07F6E9F7,
0x0EF00515,
0x08F80FFE,
0xF006000C,
0x0115E70A,
0xF90DDA05,
0x1DFB0D00,
0xEFF0ECF7,
0x03F4FB05,
0xF8F7FAE9,
0x0B03E1FD,
0xE9ED06FA,
0xEAF615F5,
0xF60A0514,
0xECF21FF9,
0xDE16F5EE,
0xE90BF601,
0xFD0C03F3,
0xFD01F1FE,
0xF008070A,
0xEDE7E6FC,
0xF1F2F0EC,
0xF10604EF,
0x13F3FAF2,
0x0112F60B,
0xDED6E104,
0xF7FEF5FC,
0x0B051E0D,
0xFBFB05FE,
0xFE120C1B,
0x211AF2EE,
0xF2E6161B,
0xF40F0808,
0xFD0501E6,
0x1706FBFE,
0x040D090B,
0x14EF100F,
0xE3000718,
0xEFFA1207,
0x010C0AFD,
0x0D1302FE,
0x0F1403F4,
0xD8FB0A0A,
0xE901FBF4,
0x051304D8,
0xEF0BF7E7,
0x150DF8F6,
0xECD3DEF6,
0xF9F70C0C,
0x0512F7FC,
0x1D0B05E7,
0xF2FBFA03,
0xE8EDFF09,
0xE90A1EEB,
0x150AFFFD,
0x04FBF908,
0xF8DDE6E0,
0x01EFEDF4,
0xFEF5F1F9,
0xFC02F50A,
0x02D203FB,
0xF5F5EDE9,
0x08F5F4F1,
0xFC08FA06,
0x04EA02FE,
0x01F9FFED,
0xFD01EAF8,
0xEF05F2FD,
0xF9010701,
0xF1EC00EE,
0xF2F203EF,
0xDEEF041A,
0xF81019F7,
0xFFF20EEA,
0xF504FAEE,
0xE4F10DE5,
0x061EF5FB,
0xF10A0E00,
0xFE09FC05,
0xFBFD0B0D,
0x050608F1,
0xFD00FD03,
0xFDF70202,
0x0702FDFF,
0x0CFAFF06,
0xFF020003,
0x0214FAFF,
0xED26FF22,
0x18F9070C,
0xE8F0F2E8,
0xE8F7F0FE,
0x02FDEFE0,
0x0AE2E6EA,
0xF6ECFAF8,
0xF3FBFF06,
0xFBF9EDED,
0x0E0C0CF1,
0xF8020F0F,
0xEF05020B,
0x000C04DC,
0xFFF3E410,
0x02080606,
0xF7FDFAF3,
0x090104FD,
0xFC090605,
0xFBFD0016,
0x010C0404,
0x0E0B0EFD,
0x1E09F00B,
0x03F4F10E,
0x120CFA0C,
0x01032022,
0x01F3E6F7,
0xECF104FB,
0xFF10E9FE,
0xECECF802,
0x08F5FA0B,
0x10E2E6FF,
0xF7080915,
0x1204061E,
0x0608F504,
0xFF0BF003,
0x0CEAF1E4,
0xF8F3061A,
0x380C090B,
0x0300FD32,
0x05EFE6FE,
0xFBF0E610,
0x00FE1E17,
0x0002F8F5,
0x150AFBFD,
0xF9F2FA02,
0xE801EEF8,
0xE5E4F6E8,
0xF8EEF4FB,
0xFEFEFCF7,
0x0AEEEDF6,
0xDD1D05FA,
0xF2EEE216,
0xE8FB0CF5,
0xF8EEFDF2,
0xE8FF040A,
0x0AE702FA,
0xF0ECFEF5,
0xF1E1F000,
0xE2EBEDF5,
0x0D04FCF7,
0xF50506F7,
0x03F7FAF4,
0x09FC07FA,
0x2B130301,
0xF60EF2EC,
0x00ED0A0E,
0xF0141700,
0xF5F70601,
0xEFF601F6,
0xF908FDFC,
0xF70100F1,
0x1409E9F8,
0x000603FF,
0x03F10609,
0x04F50A1E,
0x17E70007,
0x2403F80D,
0x0102F6F6,
0x04130C09,
0xEAEFF5EB,
0xF4FC06FB,
0xFF0FFCE0,
0x1EE7FD09,
0x1A02052C,
0xF9FD11F9,
0xF510260E,
0x0D142A0A,
0xFEE5F3F2,
0xED070413,
0x090AF8FF,
0xF601F612,
0x0FF2FC02,
0xE1E5F3F2,
0x01090DED,
0xF8FD0100,
0x0204FBFB,
0x0BFAFEF5,
0x0EF902FE,
0x03000505,
0x07EE1109,
0x231D19EE,
0x2E170611,
0xF4CDFDFE,
0xEC1703FD,
0x06F2FF09,
0x03FB0A07,
0x0ED2E4C7,
0xE6F1F7E8,
0xEC192F1E,
0xE40005F5,
0xF019EDF4,
0xEEF7F7EE,
0x2B081202,
0x00070926,
0xE704F918,
0x03E603F6,
0xE6E5E407,
0xECF5F00D,
0xECEB0CF5,
0xE9DAFFE9,
0x1210DBF5,
0x1CEAE7F2,
0x12F9F81C,
0xF1E5F41C,
0x00101928,
0x0BF5EFFB,
0xFFFC090C,
0x0B1A1408,
0x09F4050C,
0xE3F5F2EE,
0x020FE0E9,
0xEE06E9EF,
0xF8010CFF,
0x1618F008,
0xEDFD0B09,
0x16E6FD05,
0xF8F8ECFA,
0xECEC07F9,
0xE9E6F1F5,
0xFFF9F6E4,
0x17F9EAEC,
0x0F180715,
0x09030F19,
0x0F0402FC,
0xEEF63521,
0x082F1C02,
0x150AFA0F,
0xF7CC1108,
0xE0FCFB11,
0x031B0500,
0xFC1D14F6,
0xFEE7F205,
0xF9D9F8FC,
0x02FEFDE9,
0x11F7FCFB,
0xF5FD0708,
0xDFD3B6C5,
0xF801E8FE,
0x14141AF9,
0x0F151613,
0xEF261F14,
0xF4EEF5DB,
0x29273B20,
0xDB25110C,
0xF0030A05,
0xEE0804DD,
0xFC01E509,
0x06EFED05,
0xD4EF050A,
0xE3FAD8EA,
0x07D1D4E6,
0x09DF040A,
0x12171713,
0xF302062B,
0xE7FD170C,
0xF7F7DFDF,
0x15D4F7EF,
0x07010D12,
0x05092316,
0x080C0B1E,
0x01F1E6F5,
0xEBE0FAE7,
0xEA00C7EA,
0xE5F9E8E8,
0x1A05F4F1,
0xFAF81007,
0xEB16F5FD,
0xFDFA05FF,
0xFA00FEF9,
0xFF00FC02,
0x01FD02FF,
0xFE05FCFA,
0xFF00F7FA,
0x01FB02FF,
0xFC020601,
0x03030303,
0x03FF0500,
0xFCFAFC01,
0x0006FB05,
0x01FB0600,
0x050000FD,
0xFCFEF8FB,
0x03F9FE03,
0xFA000102,
0xFCFB01FA,
0xFD04FCFE,
0x02F8FFFE,
0x00FEFEFB,
0xFA020004,
0x01FCFAFF,
0xFDFF00F7,
0x01FDFDF9,
0xF9FF02FD,
0xFBFBF905,
0x0305FF03,
0x01FBFCFE,
0xF9FBFC02,
0x01F8FE04,
0x00FCFBF9,
0xFFF9FF01,
0x00FA01FF,
0x00FC04F9,
0xFBFEFEFD,
0x00FDFF01,
0x05FEFE00,
0x03FEFCF8,
0x05F701FC,
0x0000FB03,
0x04FAF8FB,
0xFF0302FD,
0x030303FD,
0x01FEFBFE,
0xFF02FFFF,
0xFBFBF700,
0xFEFC0200,
0xFEFEFC03,
0xFAFC0205,
0xFCFEFDFA,
0x04FCF9FA,
0xFD0301FC,
0xFDFF02FE,
0xFD020500,
0xF802F7FC,
0xFEFFFFFA,
0x050505FC,
0x0505FD01,
0xFDF8FD05,
0xF9FE00FC,
0x05FC0204,
0x0304FCFE,
0x01F80003,
0xFDFC0302,
0xF9FFFC00,
0xFEF9FAF9,
0xFF02FCF9,
0x0100FBFC,
0xFCF702FF,
0xFE020200,
0xFFF8F9F9,
0xFDFFFBF8,
0xFAFFFEFF,
0xF9FDFE00,
0xFFFEFCF9,
0x00040300,
0xFAFEFCFD,
0xFC0403FC,
0xFD0404FD,
0xFF0202FB,
0x0204FE01,
0xFB06FFFB,
0x01010202,
0x04FBF9FC,
0xFFF7FF02,
0xFA02FEFD,
0xFA01FDFC,
0xFFF9F7FA,
0xFE00FC02,
0xFEF9FEFE,
0xF9000101,
0xFBFCFAF7,
0x04FBFDF7,
0xFA0403FC,
0xFC010500,
0xF9FE0200,
0xFFFDFC02,
0x01FF0002,
0xFDFF01FC,
0xFD0AFAEA,
0x1814FC0C,
0xFFF90605,
0xFEFD03F5,
0xF600FF06,
0x0B0DFD09,
0x0A05F2F7,
0x0002FD02,
0x120A03FF,
0x0CFC090F,
0xF7FF0A0C,
0xFAFF0402,
0x02E1090F,
0x1EF8EE00,
0xC1E5FE27,
0xF8FD0DF2,
0xDDDBD9FE,
0xDBFA0701,
0xF00BFFD2,
0x1AFDF8FD,
0x0903F1F0,
0xEBEDFD01,
0xEE0AE2F6,
0xE4EFE2E8,
0xFD150602,
0xE3181502,
0x072801D4,
0xF70DCCDB,
0xE2FC1106,
0x062B0EF9,
0x14F9ECE9,
0x0FE9F303,
0xF1F11C16,
0x21111B1F,
0x27100509,
0x10F4FE24,
0xF802FAFA,
0x0BF7EEE6,
0x0DC3DCF3,
0x0AF30E11,
0x0108F416,
0xF8011109,
0x11E2F7F8,
0x04F0040D,
0x05081605,
0xFB051D27,
0x061026FA,
0x0404F007,
0xE6F4110B,
0x09120FFE,
0x06F8DEE7,
0xF5C7DE25,
0x01FE0B02,
0xFDDF1634,
0xDAF40909,
0xFC1B1913,
0x1C1B0B02,
0x0E1EF8FF,
0xF801EBFF,
0x05D3F3F4,
0xC5D5E9ED,
0xE3F1E8EE,
0xF7FAF1D4,
0x11C6D7E3,
0x80A1E31A,
0x14EC0106,
0x05EFFCFD,
0xFB13040A,
0xFD0F170D,
0x21090AFD,
0x11080AE7,
0xFB091F23,
0x0006E6FA,
0xFDEDE9E2,
0xEFE8FB05,
0xF3FA1A11,
0x05231CC2,
0x160E1AF3,
0xF8150C29,
0x03F401FC,
0xF6E9F2EE,
0x02CAE8EF,
0xEED41110,
0x0E151312,
0x211A1211,
0xF306EFF4,
0xFEF90DFC,
0xD9DDEDF5,
0xEB281501,
0x110610E9,
0xE50D1B1B,
0xFC190AC1,
0xF6F6DCE8,
0xE9F0F8F1,
0x1B1F0CF7,
0x08F4EBEC,
0x1606F921,
0x15081412,
0x0FF30608,
0xF80C241D,
0x0203FAED,
0x02F7F401,
0x0302FD07,
0xF8F1FDFC,
0x0205FBF2,
0xF6F5F9F5,
0xFEFF0BF0,
0x000A0301,
0xFD0905FC,
0x12060304,
0x0CFC05FE,
0x09FC0206,
0xFF0C0808,
0x04101CFB,
0xFB01F9FF,
0xF2F0F2FF,
0xFAF0FAF0,
0x16FEFFF6,
0xF5F604F9,
0xF5F0FAFA,
0x0708FFF0,
0x06060608,
0x0E040001,
0xFB09F90C,
0xF8F3FFED,
0xEFF6F90C,
0xF9F5F207,
0xFDFB0AF7,
0xFCFBFCF7,
0xF4F1F102,
0xF8EDF6FA,
0x03FB0200,
0xF8EE080D,
0x00F1F2F7,
0x04F8FAFA,
0xFDFAE9E5,
0xFDF2F1F3,
0x000A0EF7,
0xEFF7F9F8,
0xEDFD0D13,
0x080CF6FE,
0xF9FCF7FA,
0xFEF60118,
0x0104F106,
0x01FFFF00,
0x020CF6F3,
0xFAFDF3F8,
0xF1F5FEFA,
0xFDF9EBEF,
0xF8E7ECFD,
0x00F7FB22,
0xF9F4ED05,
0xFA05FEF7,
0xFB07E6EF,
0xF7F4F3F0,
0xFBFAF9F6,
0xFB0313F3,
0x0AFCFEFC,
0x0501F308,
0x030CF2F0,
0xFEFE0712,
0xF30A07F6,
0x0E0A0700,
0x040700FD,
0xF9F3EFF8,
0xF1FEFEEE,
0xF8FDF2F9,
0xF704F7FE,
0xFDED02F8,
0xE6FB0B03,
0xF903F4FA,
0xE9F5EEF4,
0xF00102F2,
0xFCFAF800,
0xFCF6F6EF,
0xF6FE0509,
0x0FFE0605,
0xF6F6F905,
0xFFF2F407,
0xF702EFEB,
0x08F2ED00,
0x0CF9F80D,
0xF2FAF803,
0x06F5FE01,
0x0CF30004,
0x000C02F5,
0x01F209FE,
0xFEFBFB03,
0xEEF8FEFB,
0xFE03FFFB,
0xFEF6FBF4,
0xFEF6FE01,
0xFAFFF6EE,
0xFEF8FE02,
0x1003F9F4,
0x01FB06F7,
0x03030302,
0xEBE1F9FC,
0xECFD0AF6,
0x06F901F7,
0xFBF3F3F9,
0xFD080CF3,
0x080B0002,
0xFD0B0005,
0xEDFC0F0A,
0x02FF050D,
0xFCFAFDFD,
0xFC01FFF8,
0x02FAF601,
0xF202FFFE,
0xFB00F704,
0xFB0106F8,
0xEA010BF4,
0xCDFBEEE3,
0x160AFBC3,
0xF201E8E5,
0xEBDF05F1,
0xE50003E1,
0xFF14ECE9,
0xDFEDF6FF,
0xEDF403F9,
0x2611FCF6,
0x09FB0D16,
0xF8F906EA,
0x0B0D1E08,
0xE9D8BDF9,
0xFBE2EB05,
0x0EEDEDE9,
0xFBE0E8ED,
0x040CEEED,
0xFA0B1A06,
0x0B1D110A,
0x2A1ADBF0,
0x04FFE801,
0xF9051619,
0xFC001A09,
0x040F07EC,
0xEEFDE8E7,
0x06091A07,
0x040BE0C5,
0x19F4F107,
0x050F0515,
0xFD06FC09,
0xFCD5F8F8,
0x0607F900,
0x100BFF0E,
0xF304151E,
0x000D0A08,
0x2AE1E900,
0xF208040A,
0xF8FB2911,
0xFD271DDD,
0x140900D3,
0xE6F4EA17,
0x0DF514F7,
0x160D08FC,
0xBEE8F818,
0xDBDCFBF3,
0xF2220FFD,
0xF91D12EB,
0xCF13F4FC,
0xEFFFF4DD,
0xF1FEDFDF,
0xD81B1914,
0x0F1F01E9,
0xFA03F6DE,
0x12E1F8E5,
0xEE091709,
0x0E17030B,
0xCFDCEA03,
0x0707FA02,
0x08FFE6EA,
0x05F0060C,
0x08030104,
0xEDFCFB05,
0x1007F3F9,
0xF2D41604,
0xC3FFD4FA,
0x1208F1EE,
0xF6F01512,
0xE91EF8FE,
0x111B10F7,
0x070ED4F1,
0xE8DBDCF3,
0x0A1E18F7,
0x0FFB0CF1,
0x03050113,
0x1A28E3F7,
0x27DAF906,
0x02ED1327,
0x060A01E4,
0x04FDFDF9,
0x0802130F,
0x1B0002F5,
0x00DE0F23,
0xEA050D0A,
0x07EC0CFC,
0x100AE9FF,
0x0CF90C0F,
0x1301180B,
0x00090C0F,
0x18FDD918,
0x04EB0313,
0xEEFD05FF,
0x040608EF,
0x0C0A0102,
0xFE03FB14,
0x040A0EFD,
0x070E0502,
0x09FDF7FD,
0x030B02FA,
0xFAFFF6F0,
0xEBF6EAF8,
0x1B160502,
0xF2EAFC0A,
0xF108FA04,
0x0EEBEDEF,
0x091A0507,
0x0E08F718,
0x1C050009,
0x0B0AFAFB,
0xFCEAEC18,
0xFD150F0C,
0x040CE8EE,
0xFA04E6F1,
0xFFFF0C0E,
0xEDF7EE0E,
0xF309F008,
0x0AF9E9D8,
0xFCFDFA02,
0x1BEFF6F3,
0x0BD1D506,
0xDFEC1F15,
0x1AFC0EFE,
0x0DE901FB,
0x2E08010A,
0xF3E5EFF2,
0x150008FA,
0x18F3ED0A,
0x0C0A1E37,
0x03250E00,
0xEBF7FA00,
0x13030410,
0xFE02FD11,
0x0FFCF7F1,
0xFBFE1012,
0x000808FB,
0x0606FD01,
0xF4FC0C01,
0x09021015,
0xFDE8F50E,
0xD7BBD60C,
0xEBFBEE02,
0x19F307F8,
0x011CF602,
0xFFF2F4FE,
0x1E151104,
0x192AF708,
0xF6F40823,
0x09F5EBE9,
0xE0F50409,
0xFB1814E6,
0xF5F4EDEC,
0xF9FDEAE4,
0xF6E6EDF8,
0xE4190FF9,
0x0B11FDF6,
0x06020406,
0xFD0A1007,
0x1B0F0AFB,
0xF2EB0A01,
0x190B2C13,
0x02F01C1B,
0x02F307FF,
0xF0F2FEFE,
0xFBFE2001,
0x0D1DF60D,
0xEC12F0E8,
0xF1020E0E,
0x070DFEE9,
0xFCFC0C0A,
0x06D7EBE6,
0xF5FA110E,
0x2A1101F2,
0x13080218,
0x07160413,
0xDFE50311,
0xDFCAE8E6,
0xD82E1B07,
0x0AF7D5DF,
0x2009FB11,
0x0F091D24,
0x00EFF008,
0xEAF8F700,
0x0B11DCCD,
0xF9E4D7F8,
0x04150704,
0x050C0613,
0xEE0016F9,
0xFD01E9EA,
0xFD04FDFA,
0xFEFD01FE,
0xFEFCF7F9,
0x03FEF9FB,
0xF5000100,
0xFEFE00FA,
0xFF0004FA,
0x010000FA,
0xFCFE0304,
0xFBFBFFFC,
0xFEFD03FC,
0x00FF03FB,
0x04FF0304,
0xFDFCFC01,
0xFCFCFFFF,
0x00FC00FA,
0xF7020500,
0xFDF9FDFC,
0xFFFCFFFC,
0xFEFCFD01,
0xFDFDFA00,
0xFCFEF9FE,
0xFCFF03FC,
0x020204FE,
0xFEFCFC02,
0x01FD03FD,
0xF7FAFDFB,
0x01FBFD03,
0x010202F8,
0xFCFB00FC,
0x00FDFBFE,
0xFFFDFB00,
0xFFFAFB00,
0xFE020304,
0x0200FFF9,
0xFA000200,
0xF903FFFC,
0xFF03FD04,
0xFDFDFBFE,
0xFEF7FDFE,
0xFBFA03FE,
0xFB05FCFA,
0xFA00FBFC,
0x0402F7FD,
0x02FDFE00,
0xFCFD01FA,
0xFAFBFB00,
0xFEFCFCFD,
0xFDFAFEFB,
0xFF00FA00,
0xFDFE0201,
0x03FCFAFD,
0xF6FCFAFA,
0xF5FB03F9,
0xFF0101F8,
0xFE01FDFB,
0x00FC01FF,
0xFEFF0201,
0xFCFB0202,
0xFCF80202,
0x02FFFBFF,
0xFBFAFE05,
0xFCFD02FB,
0xFEFE0301,
0xFB04FBFC,
0xFAFBFA02,
0x00F903FF,
0xFD02FEFD,
0xFBFEFFF8,
0xFFFBFFF9,
0x0400FAFC,
0xF8FE03F9,
0x0001FAF9,
0xFCFCFAF9,
0x00F9FEFD,
0xFCF702FF,
0xF9FA0404,
0xFBFBFBF9,
0xFCF8FFFE,
0xF7FEFDFB,
0xFF0104FD,
0x00FE05FD,
0xFBFD0400,
0xF7FD0000,
0xFEFC01FE,
0xFDFDFFFB,
0xFFF90000,
0xFCF9FFFD,
0x040200FF,
0xF904FA03,
0xFFFE02F9,
0x0002FF04,
0xFEFF0401,
0xFEFAFBF9,
0xFA040103,
0xFFFC0002,
0x02010002,
0xFCFE03FB,
0xFA0503FB,
0xFCFEFB00,
0xFE0003FA,
0x04FD0302,
0xFAFD00FB,
0x00040202,
0x01FD00FB,
0xFB04FEFB,
0x040105FE,
0xFE050101,
0x03FA0103,
0x00FE0305,
0x03FF03FF,
0xFC04FD03,
0x030300FC,
0x03FAFDFD,
0x02FAFFFD,
0xFA02FCFA,
0x00FE03F9,
0x01FFFB01,
0xFE0100FE,
0x03FEFE01,
0x0200FCFB,
0xFFFF03FB,
0xFA01FE04,
0xFDFFFBFE,
0xFF0303FF,
0xFB0500FB,
0x0101FC00,
0xFCFDFEFE,
0x01FCFB03,
0xFF03FA03,
0x00FCFC04,
0xFFFAFEFE,
0x00020000,
0x000005FD,
0x03FDFB00,
0xFAFAFBFC,
0x04FDFAFD,
0xFEFE0105,
0x05010001,
0xFA000202,
0x0002FF04,
0x00FEFD01,
0xFC01FDFB,
0xFC00FCFB,
0xFB00F903,
0xFDFA0004,
0xFFFC05FA,
0xFFFFFD03,
0xFFFD03FD,
0xFBFDFA04,
0xFBFDFD01,
0xFE0602FC,
0x01FDFFFE,
0xFD04FE01,
0xFD05FDFE,
0xFFFBFBFC,
0xFDFCFFFD,
0xF904FEFC,
0x03FBFF01,
0xFBFC0001,
0x00FE03FF,
0xFAFC0102,
0x050003FF,
0xFF0303FA,
0xFBFBFB00,
0xFFF90200,
0x03FC05FF,
0xF9FF0100,
0x04FB03FD,
0xFAFBFB04,
0x01FEFCFF,
0x0201FEFE,
0x020003FC,
0xFCFFFD01,
0x02FDFF04,
0xFC00FDFD,
0xFE04FEFC,
0x02FD04FB,
0xFAFEFBFB,
0xFA0100FA,
0xFF05FD02,
0xFB01FBFF,
0x01FD0006,
0xFB03FE02,
0xF90400FB,
0x00FE0200,
0xFE03FBFD,
0x05FFFFFB,
0xFDFDFFFD,
0xFBFBFAFE,
0x01FEFE05,
0x0404FFFE,
0x01FFFC03,
0x00FF0103,
0xFB01FD01,
0x00FCFBFF,
0xFF0404FC,
0xFE01FF05,
0x01FB02FF,
0xFFFE01FB,
0x0603FC11,
0xFDFE0602,
0x01061007,
0x0AF1F50D,
0xEBFF0FFE,
0xF5F40104,
0x050418F3,
0x0A090702,
0x050B070F,
0x10000203,
0x04070313,
0xFC0409F3,
0x0C0505F8,
0xEBEEEBE1,
0x100504EA,
0x090BF0F0,
0xFBECE6F0,
0xD3EF0F04,
0x071FFE04,
0xF001E6F3,
0xF3F2EDFE,
0x100CEAE6,
0x06FAE709,
0xFD00F203,
0xF905F9FB,
0xD3E6F7ED,
0x0B0AEEF2,
0x0FF9F3EF,
0xE50801F1,
0x1207E3F8,
0x14F71606,
0xF70E0801,
0x2311ECFF,
0xFF0F0520,
0x0A09F20B,
0xFBFC2317,
0x1A0C1AF0,
0xFE19EBF8,
0xEE06070A,
0xFC03EDDA,
0xF1D8EFF2,
0xF00A1F0E,
0xFB08FFED,
0x09FCEDE8,
0x0D0B110E,
0xFEF701FA,
0xFAFC11FD,
0x000C0000,
0x11FCF5FC,
0xF510E700,
0xFBFC07EB,
0xFD0C07ED,
0x021101F6,
0xD206F807,
0xF70E09EE,
0x070107F2,
0xF2FBF707,
0xE2F6E6F8,
0xDD000FF3,
0xFA0E1607,
0xFF1BF2E6,
0xDBC5D2EF,
0xF2FCDFD9,
0xF8ECF9EE,
0x02150EFB,
0x0802EFF4,
0x0CEEEDDC,
0x01EAFA08,
0x0303030E,
0x0FFB0208,
0x04000E1D,
0x0EE7E7FA,
0x0EF40F1B,
0xF9E30103,
0xF0F6EDEE,
0x08FC180D,
0xF6FE19EC,
0xE709E5EB,
0x1505EEF5,
0xF2F70EF1,
0x130EF010,
0x0413F703,
0x0E02F6FD,
0xF003F80E,
0x0C1BFBF5,
0x080DFEF0,
0x0A08FDFB,
0xFE01F2FB,
0x12FEF8F2,
0x0AF81611,
0x0D18F5E7,
0x0A05EAF5,
0xF7F3F507,
0xF4DBF9F3,
0xFDE81315,
0xF722250E,
0xF4E3F00F,
0x1C0B0FE4,
0x20070B07,
0xFEFA210E,
0xFD021219,
0xF3FC14E0,
0x1A0C15EF,
0xFA0E0B1E,
0x0A0BFA02,
0xFAE4EDE8,
0x03020211,
0x01FEF809,
0xF90C0206,
0x0AFEF801,
0x0D09F3F3,
0x0606F800,
0xF4041611,
0xF7E2F2F3,
0x0BF1FD0C,
0xFEF71A03,
0x011A1C0C,
0xF6FD00FF,
0x0D07DDF0,
0xDB091305,
0xE1EA0C0A,
0xFDF80F0D,
0x0C09F7EB,
0xEB140510,
0x300BF6FC,
0xE4E51F13,
0x04F618EB,
0x00120DFE,
0x080D0403,
0xEDF9D714,
0xE7E8F3F4,
0x0BF00DE4,
0xFFFF0705,
0xDE1E08F2,
0x0311F8E9,
0xE6F1EED7,
0xFD010C1F,
0xF6F31314,
0xFC13111D,
0x1809F6D8,
0xEAF5D5FF,
0x11021507,
0xF8E8F8F6,
0x0BFA1506,
0xFB141210,
0x060E0204,
0x110D0114,
0xF5EAF4FE,
0xF00AF6FA,
0x161DF6E3,
0x192023FC,
0x1C1413D4,
0x06E9DC04,
0xCAEB0FEC,
0xE4FF02D0,
0xE51209FF,
0xF1E9F00C,
0xFAFEFCE3,
0x1AF8D8FE,
0xF6DDF702,
0xFF150601,
0x12FE0812,
0x170314F8,
0x0109FA07,
0x06030318,
0x05FDFB02,
0xF3E9F603,
0xE70511F1,
0x06FCEDC3,
0xE9EBFC02,
0xFB11080A,
0xE1DDE7EC,
0x020701F1,
0x0C14FFF6,
0x210D0C17,
0x1503D9FF,
0xF8E1E50D,
0xFDF4011C,
0x0704E8F3,
0x0EDA1013,
0xF1F7EFFA,
0xED080F1A,
0x07FA0519,
0xDA01F209,
0xFAFDFBE0,
0x02FEEAED,
0x0607030A,
0x0819130B,
0x06B7F0FE,
0xEDFA0B0E,
0xF0EAFFED,
0x0B04F0F0,
0x1B12FAFE,
0x18120808,
0xF20B1E06,
0x140901EC,
0x0FFCF403,
0xD9C902FA,
0xEDFFF7D4,
0xFA051002,
0xF301F80F,
0xD4FA14F8,
0xDFDCEBCB,
0xE6F4E5F5,
0x0F08FE09,
0x08F4F0F1,
0x08030B19,
0x06040003,
0xFD060603,
0x02081203,
0x050700FB,
0x03090308,
0xF6F51B09,
0x0902E003,
0x1EFD06F4,
0x03F7011D,
0xDD040F0A,
0x0805F2FD,
0xF7EDE5DA,
0x0521F5F6,
0xE3060AFB,
0xDEFB17E0,
0xF2F9E9CD,
0xE814030C,
0x20150C0F,
0xE60409EF,
0xE00907E2,
0x02092706,
0xFA251BF1,
0x0F1E16F0,
0xF3F8EDEA,
0xF5F3EFF0,
0xE0E5F3F5,
0xC3F1FDEE,
0xF5261BF3,
0x000CFAD0,
0x0BEDE6F3,
0xFAE002F9,
0xFA0AF303,
0xFAEFD8F3,
0xEDF7F912,
0xF4FD0ED7,
0x0513D1E4,
0x13E3F825,
0xF2E4F704,
0xC9EAECF3,
0xFE07F6CE,
0x03F4E1F4,
0x01EFFF11,
0x0E1B2211,
0x0407F1DA,
0x00FCECEF,
0x0613FF18,
0xF6F3FBFD,
0x110D03F8,
0x19FBE1D2,
0xEBE5F603,
0xE9062805,
0x1E070608,
0xF3D5F7F3,
0xDFEE0311,
0x0E1B17E3,
0xFAFAE5E9,
0x04F3F90F,
0x10F00E0A,
0xF8E30C07,
0xECE9F613,
0xF6F610ED,
0xF7FADEE3,
0x1C160000,
0xF3F708EA,
0xDFEDD5F6,
0xECE9E1E1,
0xFB09F5F7,
0x0BEBF600,
0xFEEF0D01,
0xF10F0607,
0xF20E0AFE,
0x0EF3F6F9,
0xE7E0F50F,
0xDB0A1B13,
0x01FC04D8,
0x01EE191A,
0xE02403F8,
0x02FDE4E0,
0xF0E7DDFD,
0x03FB02EF,
0xEF17EEF4,
0xE4F9F9F4,
0xF105F611,
0xEBEDF8DA,
0xD3E8EBF1,
0xF1FB04F0,
0xF00B07F9,
0xECFEF605,
0x2819DCEC,
0x08EED2F1,
0xF0CAE208,
0xEA0BEEFF,
0x0F14EAD9,
0xF5EAF6FB,
0xEDEBF709,
0x0801E9FA,
0xF7FCFA18,
0x03E6F4E7,
0x150BF1E6,
0xF7FCF911,
0xFA0111FE,
0xFD02FAFC,
0x00F8FF04,
0x0002FC0A,
0x0308FC01,
0x05001709,
0x05EF0FFF,
0xFCF8E6F9,
0x0CF7F30C,
0x0A03F9E9,
0x110EE3F3,
0x16F2F91F,
0x1BF1FD0A,
0x0C0B031A,
0x0B00081E,
0x050F0E01,
0xEAFA0AF8,
0x11F208EC,
0x07F2FC0E,
0xFBEDFE17,
0xF2EE0BFF,
0xE2F7DBF3,
0xFDD617FD,
0xF9FFF8FC,
0xF8F2F7EE,
0xF305F7FF,
0xE4FFF9E8,
0x160AFAD2,
0x0D0EE7F8,
0xF80AF0E0,
0xFFFEE509,
0xFDFF02FD,
0xF7FCF907,
0x1809100A,
0xF900F604,
0x05FF2603,
0xF2FB070C,
0x010A0CF6,
0x0FFFE6F7,
0xEFE8F6F8,
0x01022C0F,
0x09F2E90B,
0x0305F5FC,
0xFAFCEA03,
0xFEECE90C,
0xFA1402FA,
0x0703F2FC,
0xF00EF3FD,
0xF8E6DDE6,
0xF0112700,
0x0C14F1E8,
0x060806F2,
0x070BE4F9,
0xF9100516,
0xF5EE07DE,
0xFD0AF705,
0x0D0E0FFB,
0x1816F0D5,
0xF2EF01FC,
0x0A100CF3,
0x060906F0,
0x1424F0F3,
0xF7FAFB05,
0xF7EFED10,
0x0C0AEB23,
0x02FB0E14,
0xEC021A13,
0x0108F3ED,
0x0CF3F8DB,
0x0F1AF215,
0xF10BFAFA,
0xFFF6E5FC,
0x0B0AF1E7,
0xEF0D141D,
0xF6E2FCEE,
0x002AE3EA,
0xF7EE0310,
0x1D0CDEF1,
0x1301030F,
0xFBE4FB04,
0x060CF2F5,
0x00000908,
0x28FAF50D,
0x0F07E3D6,
0x0908F8F6,
0xE1DBEFE7,
0xF512FCF5,
0x0EFEE3EB,
0x000200EB,
0xF6E50101,
0xF303F102,
0xF10313FB,
0xF8F301EB,
0x1409FDE5,
0x07131514,
0xF0FA0717,
0x00F303EB,
0xDAD6E6FD,
0xDAE5F109,
0x02FF01DB,
0x08FE0902,
0x02FEFE00,
0xFE0E040E,
0x0E090D0F,
0x07030C0D,
0x0D0B1A0E,
0xFC06F811,
0xFBFDF2E3,
0x0100E309,
0x0A0BF800,
0x21D2FBF3,
0xE904EE14,
0x030704F4,
0x0C141D09,
0x0A081FF5,
0xF1E7F305,
0x0D0F0202,
0x02F91319,
0x141FEDF0,
0x11FDE7FD,
0x08E702FC,
0x13090201,
0xFA11171C,
0xFC18272E,
0x0310FAE2,
0x06EC0604,
0xFDFB0A10,
0x09090FFD,
0x02EF1312,
0x08E0DBEC,
0x0801FB03,
0x100E0205,
0xF4F2F5FD,
0xD0D8F616,
0xD6FEEFD6,
0xDC12D2D0,
0xE3F7ECDE,
0x180C06EC,
0xF1F8F1F9,
0xE1D8E6E7,
0xF805F2EE,
0xF6F708E1,
0xE7F4E4FA,
0xFAFB0BFB,
0xF3EDF80F,
0xFE0F07FC,
0x12122D0A,
0x1310111B,
0x0A190E20,
0xF0FD0109,
0xFD0D31FF,
0x2110FEF9,
0xFBEFF8FD,
0x0408F7E6,
0x0F05F10E,
0xF6FD1002,
0xFA07FD0C,
0xF40D16DF,
0x0115EF01,
0x0A0FF306,
0x301512E9,
0xF801DDFC,
0x0304F2F0,
0xFEEE03FA,
0x1A1416FF,
0x0BFE0717,
0xF6F8FD01,
0xF6EBDDDF,
0xF4FBEC04,
0xEAEB14F0,
0xE510FFD7,
0x0405D5DB,
0xFCEFFCF7,
0xFF1D08FF,
0xF2FD0CF2,
0xFFFF0BF6,
0x0AFC0B00,
0xE00B1114,
0xEAF90E20,
0xF3DBE7E7,
0x090BF9F6,
0xFD17F909,
0xFB0504F8,
0x17071913,
0x07060F03,
0xFDFBF609,
0xFBF1ED01,
0xFF0100FA,
0x150D11FA,
0x1E0CF6FE,
0x101B081B,
0xF1FF0616,
0x170E19E5,
0xF7EBF3FD,
0xFDFFFB12,
0xF0F60E04,
0x09FD0903,
0x02F6FF07,
0xF9060E10,
0x040D00F4,
0x01F91F09,
0x000E0E02,
0x0C140A01,
0x0C0401F9,
0x01090403,
0x2207FB08,
0x21221C1A,
0xFC0B1413,
0x01080F0D,
0x0FF2F5F2,
0xDFFCF60B,
0xDCEAFCFB,
0x0901E4D4,
0x2B00FBEE,
0xF2FE1814,
0xE7F71112,
0x04EEF013,
0xD8F3080C,
0x3129140B,
0x240809F6,
0x0CDFE315,
0xD1F70109,
0xF604ED04,
0x09FAEFE7,
0xF3D0E2F5,
0xBAE4241B,
0x081A12E5,
0x1C0EEDEC,
0xF40B040D,
0x0D130307,
0x05FFFFF1,
0x0BC9C7DC,
0xF101ED08,
0xFDF10C0E,
0xF4031406,
0x04F8070B,
0xFCF6EDEE,
0x0E06F6E9,
0x05FC0BF6,
0xFE010F09,
0x0005F207,
0xF3EE03F9,
0xF2F1E4F3,
0x1D11F1E1,
0xFDF3EC30,
0xF4EA0AFD,
0xF70F0BEE,
0x09EFE902,
0x03EDDEF8,
0x0E000F01,
0xF8031234,
0x01FE08EB,
0xF10FF7FD,
0x0AE6ED00,
0x01F0E2DE,
0x1229F6F3,
0x08F91016,
0xC7F0070A,
0xF704E905,
0x1DF5FDFA,
0xF3FDFB06,
0xFCEF090F,
0x18FDEFED,
0xF5D5F708,
0x060E0F27,
0xFEF901F4,
0xFADCF7FB,
0xF401080A,
0xF50A1B18,
0x0C3114E9,
0x0A10EF02,
0x08F40B1B,
0xF50302FC,
0xEBEDFF10,
0xDCCED7EF,
0xF1F91DF6,
0x021DF5CF,
0x18EDEAF2,
0x0518071A,
0x03F400EF,
0xD5F1DAF4,
0x062E04FB,
0x1908DFF3,
0xEE0A1201,
0x0C0907E7,
0xF912E3F5,
0xDBF8F4F5,
0x111A03F2,
0x0BF8DDFB,
0xD6D8DE1B,
0x141216EF,
0x0201ED09,
0x02FCF2F4,
0xEDDEE1E4,
0xE9E5FD02,
0x1209100D,
0xFCCEDBFA,
0xEDE8DCEA,
0x04FEF9F1,
0x030501F0,
0xFC0614FD,
0xFD05FD03,
0x040204FA,
0xF9FB05FE,
0xFFFB0609,
0xFA11F7FB,
0xF509030E,
0x01F90EE7,
0xFF0CF0F2,
0x120DEBF7,
0x0CE6F10A,
0xDA0C0E08,
0xF8E5EFF4,
0x14EBDAF2,
0x1C00F116,
0x1615090E,
0x1AEEF40C,
0x07F9F203,
0x3030FFDD,
0x1B08F104,
0x1105061E,
0x020412FC,
0x051108FD,
0xFF07E6F1,
0x0805C61A,
0x0AFE2911,
0xE10FFBF6,
0x110A01E3,
0xFC10F0EC,
0xFCFDE7F6,
0x04D50AF4,
0xF7FF0A01,
0xEA0CFFEF,
0xEAD409EB,
0xDAE5FCF5,
0xEA05E9F3,
0xE7FF03F8,
0xF5F4EBEF,
0xD9F404FF,
0xD1E0F2F4,
0xEEF0F1DB,
0xECF3F9E9,
0x03E903EF,
0x080E02F9,
0xE6DCE00B,
0xF6FB05EF,
0x06FE15F6,
0xF3F90204,
0x01091303,
0x1802F7E9,
0xDFF42520,
0xE51908EB,
0xED18F6DC,
0x0806F0FE,
0x0C131E03,
0x05F00307,
0xD11B0812,
0x0A041500,
0x080DFAEA,
0x0D0EF700,
0x0C1E1000,
0xD214080C,
0x0203EFFA,
0x00F0EDE4,
0xE0F3EB03,
0x090BF8FF,
0xF4D3E9F8,
0xF8070913,
0x0112EE05,
0x25F4190C,
0xE311160F,
0xE204070B,
0x101506E7,
0x100AF4F7,
0xEEF3F3F3,
0xF8ED03EF,
0xDBF4EAF0,
0xF50DEBDD,
0xF4E0E205,
0xDCDE08E5,
0xE3E3F4DD,
0x07FDFEED,
0x0E07F4F7,
0x07F3F907,
0x0607EBE2,
0xF9FDE2E6,
0xD1FE03F1,
0x062109F0,
0xFDF706F3,
0xF5E9F7F4,
0xD9EC1412,
0xEEFE1107,
0xF5E618E3,
0xFDF4EEF8,
0xF5F7FBFB,
0xF3F2FFF9,
0xFBF5F8FF,
0xFAEFFAF9,
0xFAFCF502,
0x03FC0400,
0xFE050103,
0x01FEFDFF,
0xFD04FD05,
0x050000FA,
0xFF03FE00,
0xFCFCFC00,
0xF9FEFBFF,
0x00F20AFD,
0xF20406FF,
0xFB070200,
0x0B05FDF8,
0xFEFEF7FC,
0xFFF8F8F0,
0xFFFEF0EF,
0xF1FA0006,
0xFBF80600,
0xFB08FCFB,
0xFFEDFCF7,
0xFCF101F3,
0xFC08F9F3,
0xF9F9FAFE,
0xFDFFF9F5,
0xFAF700F9,
0xF8F5F5F8,
0xFAFCFAFD,
0xF8FA0701,
0xF801F7F1,
0xF9F5FFF6,
0xF0FBFFF2,
0x04FA02FA,
0xF3F9FEF8,
0xFBF7F8F0,
0xF9F9F9FF,
0xFBFAF1FD,
0xF9F2F9FC,
0x03FFFAFA,
0xF4F9FE01,
0xFFF5EFF6,
0xFB060BFE,
0xF8F5F3FD,
0xF9FEF2FB,
0xF9F8EE01,
0xFF0A09FE,
0x0103FAFE,
0x07FA03F9,
0xF3FCF0FA,
0xFBF7F303,
0x03FAFFF4,
0xFDF3F0F6,
0xFB01FEFD,
0xFFFFFA02,
0x08FDF902,
0xFCF60202,
0x00FC010D,
0xFE0206F8,
0xFD02EAF4,
0x07FDF6FE,
0x05FBFC08,
0xFEF70407,
0xF6020302,
0xFF05FE02,
0xFEFBF6FB,
0xFA04F700,
0xF7FAEFF5,
0x00F8F8EE,
0xF6FAF7FC,
0xFBF4F9FA,
0xF6F8FEFA,
0x0D0900FC,
0x00060102,
0x00FFF8FF,
0xF5F2FB00,
0xFFFAFDFE,
0x010209FD,
0x07EDF5FC,
0xF8F80204,
0xF001FEFE,
0xF003EFF3,
0xFBFBFDF6,
0xF7F8F4FF,
0x00F7F5FD,
0xF4FA050B,
0xF5F9F8F3,
0xF4FCF6FA,
0xFBF9FEF7,
0xF9FC00F3,
0x01FCFBFC,
0x0403FDFF,
0x120401F6,
0xFAFCF501,
0xF3F8FEF3,
0x01F8FA00,
0x00F702F3,
0xF3F4FD00,
0x0AFF09F0,
0x02020112,
0x01F4F409,
0x1CFDE400,
0xFFFDEFDD,
0x0CFDFE26,
0x0203FF03,
0x01FBFFFE,
0xFBFAF9F4,
0xF9F8FE09,
0xF7F902F8,
0xE8F500FE,
0xFF01FFF2,
0x08FAF508,
0xF6FC0FFE,
0x090BFE08,
0x2016DFEA,
0x00F0EF09,
0x001F0E09,
0xF3FDE1FE,
0xF9FEF6F6,
0x1A0C09FB,
0x181A0B13,
0x05F2F921,
0xB9DE0617,
0xFDEF0CEF,
0x100EFDFF,
0x2207E700,
0x03F4FB07,
0xF5E6E104,
0xF6F5080D,
0xEF0B05FE,
0xF3EADEDF,
0x0EE8F7D1,
0x1501C2CC,
0xFFFCFAFF,
0xF6F61704,
0xFB080D0A,
0xE7FC0E0F,
0x0A14FDD5,
0xFEDAD9F9,
0x0801171D,
0xFC1E1304,
0xFCFD010C,
0x010D0008,
0x11F9E705,
0xF1D9080D,
0xEF13FAF0,
0x17F3051B,
0xF3FA0A16,
0x00EFF2F6,
0xE603FAF5,
0x2B0ADCD6,
0xF2EEF6E7,
0xF8F7FCFA,
0x05F9FC02,
0x1BF9E6FF,
0xECDA090F,
0x13F1EDF8,
0xF7081810,
0x06231CF5,
0x03F0FEF9,
0xF2F9FFF0,
0x1F0CF6E9,
0xFA111002,
0xF91E0BD9,
0xED07F8F9,
0xF7FDEFDE,
0xFBFFFCFC,
0xF1E6EE04,
0xF9FB05F4,
0xFFF41301,
0x1500FCFC,
0x1C06FF0A,
0x1CF1D7E9,
0x06F3D81A,
0xF8EC0025,
0xC7F9DE01,
0x0B0FEBE0,
0xF2F21AFC,
0x1EFC0304,
0xE9FB09FF,
0x14F7EC02,
0xFFE1E009,
0x13EEFDF2,
0x02F3F011,
0xF705150B,
0xF4ECFE00,
0x04FBE1E9,
0x10F7F8F3,
0xFDF60224,
0x1F01EC05,
0x0D0F0C06,
0xFAEBE5F9,
0xF4E5F5EA,
0xFBEB1106,
0xD9F503E2,
0xE8FB0AF9,
0x02F9F1E3,
0x0B05FEFA,
0x1504E01D,
0x02EE0105,
0x080D2E03,
0xFB0102FA,
0xF603040C,
0x0804FCEC,
0xFC000F0A,
0x000D07FF,
0x0B090406,
0xFF070208,
0x090805F7,
0x0BF50109,
0x251D210F,
0xDEFB151E,
0xEC091406,
0xF706F5DA,
0xFAF20212,
0xDCF703DD,
0x100AFDEA,
0x161112F4,
0x03F50F13,
0xEBF3F605,
0xDEF90511,
0xE20206F8,
0x0E1F1700,
0x0A240DDE,
0x13F7D2F0,
0xDFFBFFFA,
0x04FDF6EC,
0x06F9D0F0,
0xFFD6E00B,
0xDACC0BFB,
0x052A1C19,
0x1521FDF8,
0xF9F91023,
0x0E090DFC,
0xFB00F3EF,
0xF4DFDEE0,
0xFDF5FD0E,
0xFEFB08F6,
0x0607190C,
0x1801F5F7,
0xE8EFF2FB,
0x0106FFE4,
0x121110ED,
0x160D0C0D,
0x051A0317,
0x17FAFF00,
0xF601EE05,
0x120600EE,
0xEFEAF72C,
0xF7EB0F0B,
0xE4DC0115,
0xFBF3F8FF,
0x080AFFF5,
0x030A07F9,
0x0A12DA0C,
0x0EEFF804,
0xDCD4120B,
0xFBF700F1,
0xF4E9DFEE,
0xF817F3F3,
0x04EDFE0A,
0x9ECC070A,
0xF5ED0308,
0x000BF2F8,
0x17F80501,
0xFAF812FD,
0x2A0E0C02,
0x06ECFDF3,
0x170B0E1D,
0x0B05EA0A,
0xF9F4F201,
0xEDF601FF,
0xF80D04FC,
0xEE2309D2,
0x1A0DFED9,
0x01FE05FE,
0xF6FE0102,
0xF7FB02FE,
0xEEDEE707,
0xDEE10E0F,
0xFA281CF3,
0x0A03FBFB,
0x0106030B,
0x0B0A02F9,
0xD3F0F411,
0xD7290C00,
0x090F05D6,
0xF20E1404,
0xEF1B1BC2,
0x00F5F2F7,
0xEBE7F6FA,
0x150F07FA,
0x1011DBF0,
0xF7ECE622,
0x0C0AFB08,
0x0BF90CFE,
0x0A1712FD,
0x08F9FBFC,
0x05FAF40C,
0xEDE9070D,
0xFD09FE18,
0x14FAF2F0,
0xFBF4EFF0,
0xFA04F8FC,
0xFC0006FE,
0xFEF900F2,
0x0E01FC00,
0xF902FB05,
0xFAFE0501,
0x14FCFF02,
0x0D2DFA15,
0x15F10102,
0xF1FD0C08,
0x0E1610EE,
0x1B04F306,
0x0AE6161C,
0x0D0DFDF0,
0x13110BF5,
0x100E1416,
0x06FF200A,
0x18F80A15,
0xD8E9D001,
0x32102218,
0xFC051D20,
0xFC0DF62A,
0xF0FAF8E5,
0x04EEF7F2,
0xF6FEF2FB,
0xF9F3E41B,
0xD6CE09F9,
0xD902F4EA,
0xFFF8E9DF,
0x0310F2F8,
0xFD040CEE,
0xF0030815,
0x0003EFE5,
0x0509FC12,
0x001300E7,
0x190BDD03,
0xFC031B16,
0xF60E030B,
0x0101ECE5,
0xF6FBE4D4,
0x19E7E601,
0xF3F32214,
0xFF09F1EB,
0xE6E6F909,
0x0008F113,
0xFFDCF304,
0xDFEC15FA,
0x0B15F7DC,
0x0E07E70D,
0xFACDFA14,
0x0D000910,
0x0013F8FF,
0x0CEA0D0D,
0x010A0523,
0x02060D14,
0x170A0CDF,
0x002AEC1E,
0x002A0505,
0x05F2FCFA,
0xF8E90E10,
0xF21B10FF,
0x08FD01F9,
0xEC01F908,
0xF9E4E6D8,
0xF9DCDCED,
0x110F1F01,
0x0502100E,
0xF3F30706,
0x011507F8,
0xEBFB2015,
0xE30A020C,
0xF9F9F8F4,
0xF1F0F1DA,
0x0415EE05,
0xFFFF1EFD,
0xDDBFE4F9,
0xE8FD0EF0,
0xFF01DEDE,
0x14FEF8FB,
0x0DF71A14,
0xFA0600FD,
0xEFD00300,
0xDB15F8F7,
0x14FAEAC5,
0x0705E9F5,
0xF3E20A0E,
0xF2FFECFD,
0x0206FDF0,
0xFCE6E5F3,
0x02F9D3D3,
0xD5F0E4F4,
0xF407FDE8,
0x0107F3ED,
0xFDEFD3EC,
0x03FBFCF9,
0xF9FD03FF,
0x04FA0202,
0x05F9FEFC,
0xFBFA01FB,
0xFCFCFDF8,
0xFEFCFCFC,
0x04FC0000,
0x000301FC,
0xFFFE0403,
0x030001FE,
0xFCFD0404,
0xFB030401,
0xFC050105,
0x01FC0000,
0x0303FCFC,
0xFAFC01FE,
0xFA0100FC,
0x02FEFE00,
0xFCFBFA00,
0xFB00FBFA,
0xFBFF0202,
0x0502FA01,
0xFAFB0004,
0xFCFEFDFB,
0x02FAFDF8,
0x00F7FDF8,
0xF9FEF800,
0xFFF8FEFC,
0xFAFCFBFE,
0xFBFEF9FC,
0x01F6F9FB,
0xFFFDFF00,
0xFC01FAF8,
0xFAFF00FF,
0xFDFEFF00,
0xFE0000F9,
0xFAFD0102,
0x01FFFEFE,
0xFE00F8FE,
0xFFFE04FD,
0xFB00FFFF,
0xFEFDFBFB,
0x020102FF,
0xFF04FF02,
0x0002FA00,
0x05FBFBFD,
0x00FBFEFF,
0x00FAFBFB,
0x01FC0104,
0x04FD0001,
0xFFFB0401,
0xF9FC0304,
0xFCFC01FC,
0xFA0002FC,
0xFCFDFB01,
0xFF01FBF7,
0xF9FF04FB,
0x0603F9FB,
0xFCFBFEFC,
0xFF05F5FD,
0x00FC00FC,
0xFEFDFC00,
0xFDFEFCFA,
0x05FFF603,
0x05FCFDFF,
0xFDFBFEFE,
0xFD04FCFB,
0xFF01FE01,
0xFEF8FFFA,
0xFCFBFD01,
0xF80303FD,
0xFE01F6FE,
0xFDFCF9FA,
0xFFFD0303,
0xFCFFFE01,
0x03F9FA03,
0xFDFDFEFA,
0xFDFFFA00,
0xFCFD00FC,
0xFBFD01FE,
0xFDFDFBFD,
0xFEFCFBFD,
0x0302FD00,
0xF804FFFB,
0xF7FF0002,
0xFAFDF9FD,
0xFE04FB04,
0x03F8F9F7,
0x00F8FCF8,
0x0201FFFE,
0xF8F7F7FE,
0xFDFA03F9,
0xFEFDFC02,
0x0404F703,
0x060401F8,
0x00FDFDFD,
0xFCFCFE05,
0xF9FF01FF,
0x0001FDFE,
0x010107FE,
0xFFF9E6EF,
0xFEECE40C,
0x09E1F505,
0xED0D06FE,
0x161A1E19,
0xFFFDFEEE,
0xFD04F5F7,
0x0DFAFAF8,
0x11FCF9FE,
0x03FCFB01,
0x070507FD,
0xD704F805,
0x05FBF0EE,
0xED0BF107,
0x18FB0213,
0xFFF7E0E8,
0x0809FD12,
0xF70AFFF3,
0xEDF4121D,
0xEC03090F,
0x21FBCED5,
0xF5FA111B,
0x06F90AF9,
0x07161C01,
0xE3E1ED08,
0xFBFDECD3,
0xFBF8FEDC,
0xFF11E0E3,
0x1115080E,
0x11031703,
0x0F10F716,
0x11FFF1DB,
0x0EE0E303,
0xE8F61022,
0xFC262D07,
0x0F0F0FD7,
0xDCE6FAFD,
0xEF120E0A,
0x0602FF1D,
0xF7081F0D,
0xFAFD0EF6,
0x13190AFF,
0xEEF3F718,
0x0EEEF600,
0xE9F90D01,
0xE1EE10E0,
0x090BE0E7,
0x1AE4E703,
0xFA05172B,
0xD7DC0413,
0xD4F617F5,
0xFAF6F7D7,
0xF71910F6,
0x0C0B00FE,
0x1BF9EAF2,
0x12FD0222,
0x241BEDF7,
0xECEE1122,
0x192305FF,
0xF6FF04F2,
0xEBFD030A,
0xE1ED03E3,
0xECF5EAEC,
0x221B0CD2,
0xFF15E5E9,
0x09DCECEE,
0x01FD140A,
0xE8FF0F04,
0xDAF1F4F3,
0xF1E5EFF8,
0x2D0800E3,
0x1307FF18,
0x07BEEE00,
0xE506EDFA,
0xF8E3E4F1,
0xFD1519FF,
0x0A17EFF1,
0x15111DD8,
0x1827FFF6,
0xFA13060C,
0x0909F5F4,
0x0FFDFB1C,
0x0FC4ECF2,
0xF40D090E,
0xFC0F110F,
0xFB02F7D3,
0x0BE8E2E7,
0xF0F2EE04,
0xECF2F8FD,
0x1A25FE02,
0x0B030011,
0xF7FFFE03,
0x03030F01,
0xEADFEDFD,
0xDCEBFAF8,
0xF3210DF5,
0x090DF6FA,
0x090613F5,
0x12FD0A12,
0x05F0F3F4,
0xF5F90EFE,
0xFF04EAF0,
0xFB0F080C,
0xF0EDF4F2,
0xF802080F,
0xFF05FE04,
0xFB0105FF,
0x02050603,
0x08FFFBFB,
0xFD01FDFC,
0x05040205,
0x0B151B0B,
0xFE071514,
0x0D000703,
0xF9F8F8FD,
0xF9F01E01,
0xF715F902,
0x0106F802,
0x0B0FFDEF,
0x08F6F1F7,
0x03F811FF,
0xFBFB1E02,
0x08072020,
0x040C1400,
0xF602EAFF,
0xFDF1FBFE,
0xFCFDFBF1,
0xFAFD0406,
0xFC051011,
0xF70D040A,
0x01FBF5FE,
0xFDEEFEF9,
0xF009070A,
0x0BF706FB,
0xEAFBFFF7,
0x0201F310,
0xF5FF0E08,
0xF6E8F3FF,
0xEFF0FEF0,
0x02FBF602,
0x04FD1201,
0x05FEFA01,
0xFAF808FA,
0xF2EFF7F2,
0x0D131303,
0xF906FFFD,
0xF8F9FB04,
0x04FD03F2,
0x05FA0801,
0x13080C05,
0x03FCFF11,
0xFD0B0E08,
0xFD02070A,
0xF3F90108,
0xF6F5FE01,
0x0300F6F6,
0xFEF70808,
0x1109F7ED,
0xFEF4F0F6,
0x03FDF40C,
0x0302F7F8,
0x09F5F403,
0xFC0E050F,
0xFFFDE9FB,
0xF5EBF90B,
0x00F00EF7,
0xFAF806FE,
0x060CF6F4,
0xFCFBF5FA,
0x01FF01F9,
0xF7F6F80B,
0xF6FEF2F4,
0x09FAF7F3,
0xF5EEFEF8,
0xF703EBEB,
0x0BFF0FF6,
0xEE08F800,
0x0DF80605,
0x02FE0606,
0xF50503FD,
0xFCFDF4F7,
0xF0F71702,
0xF3FFFFF9,
0xFBF60804,
0xFEF200FA,
0xEDF3F703,
0xE9F412E6,
0x01F7F9F6,
0xFCFAFA06,
0xE5F802F3,
0xF40509F1,
0x0BF4F4EF,
0xFAFEFCFA,
0x060A03FA,
0x0C1109F2,
0xF6FCF319,
0x02F91904,
0xF3FD0308,
0xFE05F7EC,
0xF4F8FEFB,
0xF9FAFC06,
0x0C0C0A0C,
0x05F3FC0B,
0x0DF4EAF4,
0x00F5F801,
0x070EFE01,
0xFCFFFA01,
0xF9050306,
0x000502FC,
0x0AF8FC03,
0xFC090C03,
0xFD010601,
0x120E0CF0,
0x0C0C0C07,
0xE5E10300,
0xF2170104,
0xFCE408FF,
0xF8FC03FA,
0x0ACFE7E2,
0xE9F902FB,
0xE5F91C25,
0xEBEC0100,
0x0314DFD0,
0x001E07FD,
0x1E050204,
0xF7F70F42,
0xF0F2180C,
0xFFE514F0,
0xE3D6EC0F,
0xFDF80407,
0xF8E70CF4,
0xF3D1050D,
0x1A18E9FF,
0x0BE6FCFD,
0x0B0F041F,
0xF2EEFE1F,
0x0F0D0C0E,
0x0ADFE1FC,
0xEE0C0C0F,
0x25140A11,
0xFCEA0A07,
0xDAF6EDF8,
0x0501D9F6,
0xEDFCEFF3,
0x041A0EFC,
0x110AF60C,
0xEFF908F8,
0x0DD9F2EC,
0xF4FFD6F2,
0x08F7F6F5,
0xE6EFF5F7,
0x03F7F801,
0x10FDEFFB,
0x1612050C,
0x01FE1412,
0xFDF403FD,
0xFFF71312,
0x012E2103,
0x0E020305,
0xF1F0EFF7,
0xE2F1F8F7,
0x0719F8FF,
0x041C110B,
0xF0EBFFFE,
0xF4EFFFFD,
0xFE08F1FF,
0x13EE05FE,
0xF3FF0F00,
0xEECCBCD7,
0xECF9ECFE,
0x10171AF4,
0x0E0C1D17,
0xE31D1609,
0xFEE2DFE5,
0x22273E15,
0xF714000A,
0xEB05FBFB,
0xFBE901F5,
0xEEF00704,
0xFDF1ED04,
0xE9F90AFC,
0xEBF8E1E0,
0x02EAE4DD,
0xEEEC090A,
0x25281110,
0xFBFAFE24,
0xFA0E06F9,
0xF4F1E8EE,
0x13D7EF05,
0x12FA051D,
0x0C0A1110,
0xFD0A0B21,
0x09F9E2EE,
0x08EFFFEF,
0xFE08E5D7,
0xFA0A0901,
0x2405ECFD,
0xFBF41617,
0xFE0E0613,
0xF9FA01FD,
0x00FEF902,
0xFDFA0503,
0xFBFEF3F8,
0xF2FBFC04,
0x01F7F3FC,
0x01000403,
0x010303FC,
0xFE02FD02,
0xFE0301FC,
0x050403FF,
0xFD020002,
0x0505FEFE,
0xF9FFF6FD,
0xF900FFF8,
0xFBF7FE01,
0xFC0702F6,
0x08FEFCFF,
0xFAF7F4FB,
0xFFF4FBFD,
0xF8F5FCFE,
0xFEFFF8FF,
0xFBFDFBF7,
0x00FC01FE,
0xFDFBF7F8,
0xFEF8FF00,
0x01020101,
0xFAFDFB02,
0xFC00FA07,
0x0302FEF8,
0xFFFFF3F4,
0xFFF9FDFC,
0xFEF903FE,
0xF802F6FF,
0x000804F6,
0x0204F3FD,
0x00FD0305,
0x01FF04FF,
0xF6FC0003,
0xFEFF01FF,
0xFB01F7FB,
0x03F9FCFA,
0xFBFDFAF2,
0xF8FBF400,
0xFE04FEFE,
0xF7FEFB00,
0xFDFAFA01,
0x01FBF5FE,
0xFCFC0306,
0x000500FE,
0x0105FBFE,
0x01F9FCF8,
0xFEFEFFFD,
0xFA01FFFE,
0xFC010403,
0xF6FC05FF,
0x01FFFCF5,
0xFAF7FDF8,
0xFDFDF4FF,
0x03F7FA04,
0xFDF8FC05,
0x040004FC,
0x02FFFEF9,
0xFBFA05F8,
0xF502F3FE,
0x00F50402,
0xFC0701F9,
0xF800FCF3,
0xFA03FCFB,
0xFEFBFDFA,
0xFEFCFBF9,
0x00F9F5FC,
0xF6FE0401,
0x00FCFFF6,
0xFDF4F6FC,
0xFF0205FA,
0xFB000104,
0x06FC0101,
0x0201FD01,
0xFDFCFA00,
0xFB05FFFD,
0xFF01F5FA,
0xF7FD01FC,
0xF6FEF1F9,
0x0501FCFA,
0xFFF6F9FC,
0xFA01FF0A,
0xF9000200,
0xFFFCFC01,
0xFEF8FEFD,
0xFFFF00F5,
0xF9F8F3FC,
0xFF01FBFF,
0xFCF7F4F7,
0xFE0100FB,
0xFBFEFCFE,
0x03FBFEF6,
0xF3F70203,
0xFF060102,
0xF5FB01FD,
0x0D0E1602,
0x0502E4FF,
0x00DEF2FB,
0xEFF5050D,
0xFBE8E0F5,
0x011408F8,
0x00070C01,
0x01020C01,
0x0E0E1204,
0xFAFB050A,
0xF5FE100B,
0x08070BF7,
0xE6E90413,
0xF8ECEDE8,
0xC1E4E8F9,
0xFC0A1706,
0x10FEE5E2,
0x0D00E3FE,
0xFD05F9FE,
0x0005081D,
0x05FE0B0E,
0x08E5DBEA,
0xF4F9EC09,
0xED0CF900,
0xFBEFF3E9,
0xD3D9FD13,
0x01FA06CE,
0x0BF405F7,
0xE617E9E7,
0x160105FA,
0x0FF3FAFB,
0x15FEF821,
0xF3EBFFF9,
0xFCFD1D1D,
0x0CF8F2F7,
0x0EF80809,
0xEE130AED,
0xE6DAE5E6,
0xF3F61010,
0xF8FC09FA,
0x0012230A,
0x0F06080B,
0x18FB181F,
0xEA11170D,
0x0D0C16F9,
0xF8F0F707,
0x09FD04F3,
0x050E0405,
0x08120AFB,
0xF1ED0A1E,
0x08F8020B,
0xEFE9F310,
0xE1EF0510,
0x1A07FFFF,
0xE2EF0FF4,
0xF5FDF6F5,
0xF5F9FBE6,
0x2024D7D7,
0xF3E6F211,
0x150C0D0A,
0xF906F3ED,
0x060CE8E9,
0xE3E7FAF3,
0xE8E6D3CD,
0xEBFF00ED,
0xF825FAEC,
0x0505ECCF,
0xF7E5FAE6,
0x00150508,
0x151B1213,
0xFFF0FEE9,
0xFEFF041D,
0x1C0DE7EB,
0xFACDF30A,
0xECE2E9F3,
0xEAEED8D0,
0x060CF4F1,
0x1E09F8EA,
0xF7F6FA19,
0x1823FDE9,
0xFFF904F9,
0x13FCEEF2,
0x08F7E8FC,
0x080A1407,
0x02F5EB0B,
0xF4FA0514,
0xFC0BFDEC,
0xEDE3DDEB,
0xE5170BF8,
0x170AFAEA,
0xEA08EAF6,
0x040904EC,
0xF200BEE9,
0x04E4ECEB,
0xFCEC10FB,
0xF0EEEFFD,
0x06100908,
0xED0900F6,
0x1CFD03EB,
0xFB13FD12,
0x00FAFAFA,
0x07F3F305,
0x0DF9040B,
0x05110713,
0xF6F91C0E,
0x04002118,
0xFDF800EC,
0x05FA06FF,
0x0D0A0CFF,
0x09080607,
0x0DFF0403,
0x0202FD02,
0x0E0C0702,
0x0BFF1401,
0xF6050F0C,
0x00FF0B00,
0xFAFA04F6,
0xF4E9FBFC,
0x13FDF5F4,
0xFBF2FDF6,
0xF4F5F9F9,
0x0703F00C,
0x01010216,
0x0104EEF8,
0xE9F70101,
0x16E6EDF6,
0xFEF0E7FE,
0xF9F4FC03,
0x0AFA02F4,
0xF9F9FD07,
0xEE0AFAFD,
0xFEF6FA07,
0x12FD1417,
0x07190714,
0x0DFE1B12,
0x08070603,
0x190CFBFA,
0xF7E901FB,
0xF3EEF3F6,
0xF7F7FFFB,
0xFE01FE04,
0xFCFAF804,
0xFFFF0602,
0x04EDEEFE,
0xF5F8EF07,
0xF9000103,
0x0D0A06F9,
0x07FD0201,
0x090CFB08,
0x12FC160A,
0xF7000008,
0x09FA0904,
0xF7F30301,
0x00F006ED,
0xEDEB02F7,
0xF8FCF4F1,
0x0C080DF4,
0xFAF60205,
0xFC09FB11,
0x0BFDF3E7,
0xFCF9F3F3,
0xFE07F408,
0x090E0003,
0xF503F309,
0xF7F5F2FF,
0xF8F3FAF9,
0xEBF6FCE5,
0xFDE5ECF8,
0x15FEFEF5,
0x05F8FAFF,
0xFC130604,
0x08FC01FC,
0x1B10ECF4,
0xFC0B02FC,
0x00FBF9FA,
0xFBFB14FC,
0x08FE0BEB,
0xF90DED0E,
0x0F04100A,
0x03060613,
0xFC090DFB,
0xFF0215F6,
0xEF020C17,
0xFA010D00,
0xF9FC0202,
0xF4FE0E0D,
0x08FAFBF6,
0x0B00FEF8,
0x10091B01,
0xF2000D08,
0x0CFF0710,
0x0A0B20ED,
0x020BF8F9,
0xFB01FDF1,
0x0D0EFBF7,
0x0C050C08,
0x0C0B070E,
0x07060BFD,
0x13F50218,
0x0008F213,
0xFDF6FB04,
0x000004FA,
0xFDFE01FB,
0xFE010503,
0x02010103,
0x01FBFA00,
0x04FE04FD,
0xFE05FDFA,
0x03FB01FE,
0xFB050304,
0x0102FE01,
0xFA0202FB,
0x00040300,
0x05FCFFFB,
0xFAF801FE,
0x02FCFDFD,
0x00FFFEFD,
0x00FCFDFC,
0xFDFFFBFF,
0xFEFAFA01,
0xFEFB01FE,
0x00FBFDFF,
0xFCFF01FF,
0xFDFF04FD,
0x05FFFBFA,
0xFC01FFF7,
0xFFFE01FE,
0xFA00F703,
0x00FBFD04,
0xF802FDFD,
0x03FDFAFD,
0xFEFFFDF8,
0xF9FE0301,
0xFA030303,
0x000402FA,
0xFAFD0300,
0xFBFEF703,
0xFBFE0300,
0xFEF803FE,
0x04000302,
0x02F6F801,
0xFF02FF00,
0xFE02FFF6,
0x050202FE,
0x01FA00F5,
0x030202F8,
0xF80502FA,
0xFEFAFCFC,
0x0303F9F8,
0xF90103FD,
0xFDFCFCFF,
0xFFFA00FF,
0xFA00F9FE,
0x0301FFF7,
0xFFFCFA00,
0xFBFCFEFA,
0xFD05FD02,
0xFEFFFF01,
0x03FC04FF,
0x02FFFF02,
0xFFFEF902,
0xFF040002,
0x04FE0201,
0xFBFE0000,
0xFF0201FA,
0xFB03F702,
0xFEF901FA,
0xFC030003,
0x0302FAFF,
0xFEFF01FA,
0xFFFDFDFE,
0xFFFAFDFC,
0x00F6FF01,
0xFEFD04FD,
0x01F6FCFB,
0xFDF9FB02,
0x000203FE,
0xFA02FB02,
0xFEF9FDFD,
0xFC0000FA,
0xFF02FDFD,
0xFB02FCFC,
0x03FC0504,
0xFCFFFE00,
0xFEF800FC,
0xFAFCF7FB,
0xFF00FBFD,
0x01FA01FB,
0x02FCF901,
0xFFFAFE04,
0xF7FA0104,
0x0200FBFC,
0xFDFDF901,
0xFEFBFA02,
0xFD00F901,
0xFDFE0303,
0xFFFAFEF7,
0x02FFFAFF,
0xFFFEFD00,
0x02FDFAFB,
0xFAFFFE01,
0xFAFC02FB,
0xFBFA0103,
0xFCFA01F7,
0xF901F8FB,
0x0000FD00,
0xFDFC0302,
0xFCFAFE02,
0x00040103,
0x02FFFEFF,
0x000001FE,
0xFB0004FE,
0x01040504,
0x050102FE,
0x04FCF8FA,
0x00FB00FC,
0x00FD0100,
0x01FF02F8,
0xFFFAFBFF,
0xFD0402FC,
0x01FDFCFA,
0xF9FBFDFE,
0xFE0003FA,
0xFA04FB03,
0xFCFB03FA,
0xFA01FAF9,
0x00FDFCFA,
0xFD0103FC,
0x01FFFBFF,
0xFBFF03F9,
0xFBF9FBFB,
0xFBFAFF00,
0x010303FF,
0xF9FC00F9,
0x03FEF901,
0x00FDFCFF,
0xFF020302,
0x04FD03FA,
0x04FBFBFF,
0xF901F9FC,
0xF90201FE,
0xF801FC03,
0xFB06F9FD,
0xFFFBFD05,
0x02FE00FA,
0xFBFA02FF,
0x00FB0103,
0xFF0101F9,
0x00FFFF00,
0x0202FCFA,
0xF8FAFD03,
0x01FEFEF9,
0x01FCF9FD,
0xFCFC00FF,
0xFBFCFFFA,
0xFF01F803,
0x04FAFE00,
0xFC0302FD,
0xFEFAFEFD,
0xFAFDF702,
0xFEF9FDFD,
0x01FFFB04,
0xFEFE03FA,
0x00FBFFF9,
0xFE0300FF,
0x0104FCFA,
0x0103FB04,
0xFEFBFF02,
0xFB050201,
0xFBFCFEFE,
0x02FEFBFD,
0x050002FE,
0xFAF8FF02,
0xFAF901FE,
0xF8FF00FC,
0x0200FFFC,
0x03FB05FF,
0xFEFE01FC,
0xFCFEFBFD,
0xFA0201FD,
0xFFFEFB01,
0x03FE0401,
0x0203FDFA,
0x0002FA04,
0xFE000501,
0x01020001,
0x02F8FD03,
0xFCFBFD01,
0x020002FC,
0xFFFF00FF,
0xFDFAFBFA,
0x02FFFF03,
0xF9FCFEFF,
0x00FAF900,
0xFB030302,
0xFCF7F9F9,
0xFA02FDFE,
0xFF01FDFD,
0xFDFBF8FE,
0x0002FF02,
0xEBD0CEE0,
0x08ECF0F2,
0xF6EA2F1C,
0xE9120F08,
0xF2F9F8E7,
0xE9FDE9F5,
0x010806F9,
0x03021111,
0xFF160EFE,
0x0405FD01,
0xFC010704,
0xFD0504FF,
0x2F1CFD0A,
0x170F1225,
0xD0EA1107,
0xCB0BF300,
0x0506FFCC,
0xFE140200,
0xE0EDE7E7,
0xF4F6F9E2,
0x2E0BF6F1,
0x200B071E,
0xFEFC062C,
0xF4F50B14,
0x06EBF4FB,
0x151309FA,
0x09110300,
0x11F8ED0A,
0xE9EFF51C,
0xF9F1F505,
0xF0F5E8F1,
0xF9F4D900,
0xF2CB1107,
0xCC050D03,
0x0107F0E7,
0xEEFDF1D0,
0x091C11E7,
0xE10AFFFA,
0xFCE8CADD,
0x1107F1FC,
0x11FDFB0D,
0x0F00101B,
0x0E00FB06,
0xF8F106F4,
0x281EF8E0,
0x2123FDF9,
0xF7E8FA1B,
0xF8F4FF0A,
0x020500EF,
0x03E4E706,
0x1E22FF00,
0xFF07021F,
0x01F3FC00,
0xECF502F7,
0x1FFFE5E5,
0x0AF8DEE5,
0x12070A06,
0xF108F805,
0x0DD1EC08,
0xEF0312F9,
0x0C071004,
0x07F5FFF2,
0x1B1F0803,
0x08E50826,
0xC1E1FDFA,
0xE9F8EC05,
0xF4FC0509,
0xFC1AFAF4,
0xE8EDD9EE,
0xF4EBEEE5,
0xFCDBE9EE,
0x0706FA03,
0xFFF71007,
0xF90A04FB,
0x06070507,
0xCDF6EC07,
0xF6031BF5,
0xFD02F0EB,
0x0FF2F503,
0xFEF50AFD,
0xDFF00406,
0xEDE3DDEE,
0xE7E206F0,
0xD915E9D7,
0x0304F6D2,
0xF7F0EC06,
0x110C02E4,
0xF3E7F40B,
0xED090AF5,
0xF209F102,
0xEEF4EAEE,
0xEEF201E7,
0x07FFFFFA,
0xF902FE04,
0x17290B00,
0x120409F5,
0xE4EBEB39,
0xD9E3F9EC,
0x020BF3F2,
0x1D01FCFD,
0x0A0E0403,
0x1107FE17,
0xFE070516,
0xFAE9E6E7,
0xFAFAF4E5,
0xF4FD0B19,
0x0502FDE0,
0xFBFB0D02,
0x081C0704,
0x09070907,
0x14031906,
0x09170022,
0x0C1D1F25,
0xF1F8EF00,
0x0AFCF2F5,
0x17FEFE04,
0xEEFFF50D,
0xEEEFFEFD,
0xEFFAFEF1,
0x0DEBE2E0,
0xF4EAF3F4,
0x070FFE07,
0x13FBF807,
0x040FFF0B,
0xECFE07F9,
0xF0F801FE,
0x05FEFFF8,
0x12F902E9,
0xFAFF0E38,
0xFB1D1906,
0x121C0E12,
0x01FAFBF9,
0xF8FB1509,
0x0B2A06F8,
0xFF0A05F1,
0xF007F706,
0xFB0301E4,
0x1820E3DE,
0x06EB0006,
0x03F4D7EA,
0xDDDCEAEE,
0xF2FAF6F8,
0x061606F8,
0x090AFAE9,
0x111E1002,
0xE6DFF20C,
0xEFE0FBE6,
0xFA170405,
0x15EDF5F0,
0xF5FA0213,
0xF606EEDA,
0x130EEEFA,
0x220E1003,
0x0C01131B,
0xF703051C,
0xF91A00EB,
0xD9ECFFEB,
0xF00702F7,
0xEDF1EEEA,
0xF71B02FD,
0x0A0AF5FC,
0xE2E3E200,
0xF8FB0CF6,
0x17F7F2DD,
0x0D13FF20,
0x0DF90313,
0xFE0F14FE,
0x1910F0FF,
0x03F400F9,
0x00010308,
0x1314FE0E,
0xE5010314,
0xEEF7F5F8,
0xF8F9FDFA,
0xDDDED3EE,
0xF30609FE,
0xFCE604E9,
0x0CF4F70C,
0xF6FDF80F,
0xFFFC17F9,
0x0F0DF00A,
0xF5DF030C,
0x01080EFC,
0xF91E1222,
0x110BF8DB,
0xEF01DCEF,
0x07EAEAE9,
0xF9EEF1F3,
0x08090B08,
0x03030810,
0x0AF61600,
0xF9FDEBE9,
0x02FAFDF1,
0xE9D5D8F4,
0x000C18FF,
0x14210B06,
0xFFEAF612,
0xF2F21617,
0xF6FA0715,
0xF60C1007,
0xFBF2F90F,
0xF0E408E7,
0x1812EFE2,
0x1EF5FFF8,
0x1C0F1718,
0x1914FC04,
0x05FE053B,
0x06051804,
0x01020407,
0x090401FB,
0x0CF70409,
0x0908F406,
0x130E0808,
0x0B010A0F,
0xF50A11F9,
0x1119E2EC,
0x1902D615,
0xF8D00A09,
0x03EDF70F,
0xFBF901FB,
0x00040105,
0xEBFCFCF4,
0x0BF902EF,
0x1E15060A,
0x3B1D0910,
0x1618FDE3,
0xFF01E217,
0xFCF91114,
0x12181C00,
0xFB0E0807,
0xEC03FB00,
0x040100DD,
0x19FE04FE,
0x09F9F514,
0x180202F0,
0x00EBE9FA,
0x04F9F206,
0xFEF5160B,
0xFDF5110B,
0xF9F1FC00,
0xF8DCF1FB,
0xF3F4D1E5,
0xDCD4F30A,
0xF51018FB,
0xDDFDECFB,
0xE9F01013,
0xFF070AD2,
0xF606FAF9,
0xEC1D1F1F,
0x301E12DE,
0xFB06FA01,
0x0D0B08FF,
0x0A17F614,
0x09051C10,
0xECEDFF0D,
0xD2F92222,
0x150903EF,
0xFD06020B,
0xCD16F1F0,
0xFDFCEDE6,
0x27FA06D0,
0x08180726,
0xFA011E1B,
0x0109091E,
0x02001505,
0x0A14F0E0,
0x0AFDF008,
0x0114DAF2,
0x04DBE2F8,
0xF3F60907,
0xF6181B01,
0xDEFEFCE2,
0x0A04CECA,
0x0A0A01F9,
0x2413160F,
0x1627FE09,
0x1CFE1AFE,
0x01F11328,
0xC3F5FC0D,
0xDEFB00DE,
0x18F7EC05,
0xF0040416,
0x0200EDFC,
0xFEDAF504,
0xDDDAE6EC,
0xECF3D1E2,
0x0C02FCFD,
0xFE07261A,
0x09FB04F3,
0x04FB0E0E,
0x10E91514,
0x1901F7EC,
0x09120B11,
0x091E0206,
0x08F8F61C,
0x0A210CF4,
0x140E1AFD,
0xE3FE110D,
0xDBE41AF2,
0xF2030BF0,
0xF1F1F7F3,
0xFCF5FB0E,
0xF9EFF6FA,
0xF2FAE7EE,
0x0E00F5F3,
0x05FB0408,
0xFB0600FA,
0x03011104,
0x030504F9,
0x020C08FC,
0x08010301,
0x07FA020A,
0x0D011512,
0xF9FE0FF5,
0x130408F2,
0xFCFFE5FC,
0x0F1B0113,
0xFC1C00EA,
0x07FEEA08,
0xE9E3E7F1,
0x06F6F4FD,
0x03EFF804,
0xFDFA00ED,
0x031202F6,
0x05121AF8,
0xFF0FF4EE,
0x0610FDFE,
0xFE06F515,
0xF6F72A09,
0xF0FF010B,
0xFA10FB10,
0x01F3E5F5,
0xE9EAF9ED,
0xED0CFAF3,
0x0613FBFD,
0xF6F6E8EE,
0xF700EDFD,
0x02F006EB,
0xFEEBFE04,
0xE9F40205,
0xF5F508F8,
0xF10202F0,
0x1E06F100,
0x08010B0F,
0xE8F80900,
0xF6F7F0FD,
0xF6E9ECEE,
0xF7F9F200,
0x04F70301,
0x040A0D14,
0x0AFEF4F3,
0xEF03F91C,
0xF5FE0305,
0xF30D0F03,
0xFB0509F6,
0xFA12EAF3,
0xFC03F7F0,
0xF8011615,
0xF301ECFF,
0x08FDEBFE,
0x00F4FA0C,
0x01EE180E,
0xF3000206,
0xF4F6030A,
0x0DEDFEF0,
0xEDFA0802,
0xE9F21900,
0x090C01EF,
0xF6FFEDF0,
0xFCF7EEF6,
0xFCFA08FC,
0xF70309FE,
0xF8F6F5FE,
0xFFF8FDE9,
0xF3FFF6F5,
0x0C2C162B,
0x0E121405,
0x04F50C00,
0x06FEFF07,
0xFD0229FC,
0x121604EB,
0xF50AE90B,
0xEFEEF6F8,
0xF9F4FBF0,
0x100B04F1,
0x0203E7F8,
0x00EAFFFD,
0xF6FAF8FD,
0xF602F7E3,
0xFD21EEFD,
0x0710F2E0,
0xF3F801EF,
0xF4FEF7FF,
0xD6E802FC,
0xFA1204F1,
0xFD10F7EB,
0x020DFA21,
0xFAF31DFA,
0xF4060713,
0xF206FBF6,
0xFAFC0C08,
0x170E0008,
0xEAF2F616,
0xEADAE9FF,
0xE4CCEADC,
0xF3E8D9F0,
0xFFFF04E7,
0x01020301,
0x081204FF,
0x0701FF07,
0xF3000401,
0xF60A0A07,
0x04FD01FC,
0x061AFC04,
0x0ED9F402,
0xFCF8FC11,
0x0FF5F502,
0x16EDF7FB,
0x0BFCF104,
0x010F0801,
0x1308FA05,
0x08F9EAF4,
0x20EE1109,
0x19F90214,
0xD3EAF507,
0x02F0FA07,
0xFEEBFFFD,
0x0DFD0F00,
0x03FD02F9,
0x10EC02FF,
0x04E2F0EB,
0x0E040D23,
0x0BFD2507,
0x04ECCF00,
0x02F3E5EE,
0xF6F9DAE2,
0xF9E402EB,
0xFC08DDEA,
0x0DF6F6F4,
0xDA04130F,
0x09180EF4,
0x00F0CD09,
0xE7EA1406,
0x1101F610,
0x0508161A,
0xE8F2EF02,
0xDAEFE0F2,
0xE4D605FD,
0xEDEEDEE3,
0xF1E8EDF7,
0xF602FE01,
0xE5B6E5F1,
0xFB0D0DEB,
0x1FFCDCE8,
0xFBEDF2F3,
0x05DAD305,
0x11000411,
0x0BFEFEF2,
0xF0E1DF0B,
0x0E16F1F1,
0xEB12F3DC,
0x1A1FF1DE,
0x01FCE2F7,
0xFE1705F2,
0x150CDBDF,
0xF71203FE,
0xF711FDEE,
0xEADC010D,
0xFE091300,
0xF5F8F6F5,
0xF2E6F711,
0xEEF70702,
0xDEF812F1,
0xFCF4F500,
0xE9F70108,
0xDF00EC0C,
0x2215031D,
0x190FEEF2,
0xF4EBFA1A,
0x0708ECD8,
0xF605EEF7,
0x09FB00F4,
0xF912E2EA,
0x28D1F70B,
0x06E8E719,
0x09EBFF02,
0xDBEBF3F1,
0xFD0AD7D3,
0xF6FD0E08,
0x1B03FBF8,
0x0DF0DB03,
0xEAD1010F,
0xFE03E6ED,
0x10FC10F6,
0xF6EDF1D9,
0xE9F1FDF3,
0xE9F517FC,
0xF50807EF,
0xF205F4F1,
0x1FE4D8CD,
0xF9EFFBFE,
0xFF081A00,
0x0F240403,
0x1101EA08,
0x160F16FF,
0x151C0B13,
0x01050808,
0x06081A04,
0x07141003,
0x0A0A02FF,
0x09FEFF0A,
0x030B070A,
0x2C271012,
0xE9FD1210,
0xF71718FA,
0x0F12E0F9,
0x11F8E517,
0x0BCADCFE,
0xE6D8FF19,
0xF6ECEE05,
0x0AF7FD06,
0x01080701,
0xFBF911EF,
0x080301F9,
0x131DF7F5,
0x060ADFEB,
0x0AF2E814,
0xFAFA07FC,
0x08F61D12,
0xFD00FCF8,
0xFEF9FA09,
0xEF1215F4,
0x170BFD03,
0x0C11FE00,
0x05FEF5E5,
0x07F8F5FD,
0xFDFBEE19,
0x050F0F02,
0x05E5FCEC,
0xEEF7FEE7,
0xF7D6F2EC,
0xD8F3D7E0,
0xE9EEF5FB,
0x06F6F3EF,
0xE9E7F803,
0xF9EAF0FF,
0xF6FF0EFA,
0x10080CF4,
0xF2020F10,
0xEEF702DB,
0xFF0CEEE2,
0x170BEE06,
0x04F90C07,
0x01F70B17,
0x050F060A,
0xEA001C15,
0x0808FAE7,
0xF5F80703,
0xE8FF01D4,
0xD101F5DA,
0x1CFB04E2,
0x0C0C060D,
0x0FE40E0B,
0x0B011211,
0xE307190F,
0xFA09F803,
0x000300EA,
0x1627DAD7,
0xF1CEE10D,
0x050D07FA,
0xFE1217FE,
0xF908F4FB,
0x110310FC,
0xFC121416,
0x262015F3,
0x0114FD06,
0x22E10BDF,
0x09FFDC20,
0xD3D9050B,
0xE0FD04E2,
0xFD10F509,
0xFE1F1A00,
0xFDFFD3E9,
0xFFF3EE06,
0xF2E2C2EA,
0x01EFF105,
0xFD00F613,
0x0FFA230F,
0x0C12FB15,
0xFF03121E,
0x14E50916,
0x200F0101,
0xFD04101F,
0x09100805,
0x0B0E0718,
0x10251A18,
0xEAE713F6,
0xE7031106,
0xF90C1AE9,
0xEB070AF7,
0x03FB04FC,
0x0102FC04,
0x00FFFF01,
0xFDFAFA00,
0x03FDFA03,
0xFA00FFFF,
0xFFFEFBF7,
0x01FA0600,
0xFF0004FC,
0x02FC0400,
0x04FA0104,
0xFCFAFB01,
0xFC00FBFD,
0xFD01FE03,
0x01FBF9FB,
0xFDFE0205,
0xF7F9FCFF,
0x03F700F7,
0x0001F800,
0xFA05FAFD,
0xFFFB05FE,
0xFAFFFEFD,
0xFEFC0502,
0xFCFAFDFB,
0x03F900FB,
0x01FEFBFC,
0xFFFC00FC,
0x01FEF9FC,
0xFEF8F900,
0xFDF803F8,
0xFBFB0100,
0x02FA00FD,
0xF9FF05FC,
0x01FEF9FB,
0xFC03FFFC,
0x01FDF5FC,
0xFB010101,
0xFF03FFFA,
0x04FFFA02,
0xFFFFFE00,
0xFFFEF8FB,
0xFF03FEFA,
0xFE010000,
0x02FEFFFC,
0x05FBFA05,
0x0300FA01,
0xFEFA0003,
0xFD0201FD,
0xFAFA01F8,
0xF9000100,
0xFBF6FDFB,
0x00FC0301,
0x00FBFFFA,
0x0201FC00,
0xFEFA0102,
0xFF000303,
0xFAFDFF01,
0x000502F5,
0x03FAF8FE,
0x05FCFAF9,
0xF8FDF8FD,
0xFA0000FD,
0xFFFA0500,
0xFEFFFAFE,
0xFFFBFCFD,
0xFDFFFE01,
0xF601FEFF,
0xFEFCFBF9,
0xF90003FC,
0xFCF8FE00,
0xFBFC02FA,
0xF9FF02FC,
0x02010201,
0xFFFF0002,
0xFAFFFCF7,
0xFEFA04FD,
0xFEFDFC01,
0xFE0400F8,
0x010100FC,
0x03FEFAFB,
0xFEFFFBFC,
0xFEFAFAFC,
0xFA000200,
0xFE0005F9,
0xFC01FF00,
0x02010103,
0xFCFD0101,
0xFCFE0502,
0x04010002,
0xFCFCFDFD,
0xFAFB04FC,
0x0001F7FA,
0xFEFB0100,
0xFDFE01FD,
0xFE0404FF,
0x01FC01F6,
0xFA01FCFC,
0xFDFB01FF,
0x03020200,
0x0001FBFE,
0xF3FD0104,
0x070913F3,
0xFC01FC00,
0x1AFCF804,
0x0B07FB0E,
0xF5E9C0CF,
0x0AFF0427,
0xFE0C0403,
0xFF070E09,
0xFDF9F7FD,
0xF9040308,
0xFAF5FDED,
0xEFFBF905,
0xFE040602,
0xF7EFF1F2,
0xE9080000,
0x190FF803,
0x250DE7EE,
0x03F2EC07,
0xEA191614,
0x07F50C0E,
0xF9FCF8F1,
0x25090B02,
0x170D161C,
0x0D00F124,
0xDB140E18,
0xF7F51101,
0x160F1402,
0x2617FAF9,
0x18060104,
0xF7EDDFF2,
0x08F90B14,
0x0202F7F9,
0xE8E5F4F7,
0x0602FCE7,
0xEEF4BED7,
0xF2F0F4FD,
0xEDF30EFC,
0xFB0A0E04,
0xF806030E,
0x160FFBD7,
0x11DEDD04,
0xFCF92113,
0x0F0B1504,
0xF2FA00F2,
0x1407F813,
0x11FEE8FE,
0xD4D20916,
0xE80AF6F0,
0x1B03F902,
0x181D1705,
0x0201F5FC,
0xF602F20A,
0x30F9E2EF,
0xF8E9E003,
0xF8F3F70C,
0x07FF0D02,
0x18F8F20D,
0x07E70105,
0x15F1F101,
0x150E0CF3,
0x263D2503,
0xFA02030D,
0x0501160B,
0x1103FDE8,
0xF80A0908,
0xFA191005,
0xE70DFD00,
0x000B00E1,
0x0A030B06,
0xF5FE0708,
0xE1F00BFD,
0xF3FB07F6,
0x04F2E5F6,
0x1509030F,
0x1204D0FC,
0x03F4D620,
0x00DE0C24,
0xD1FEEBF1,
0x1101E3E0,
0xF6D805F6,
0x04FD0609,
0xF4FD0400,
0x0FFDF804,
0xF4E0E4F5,
0x02E1F505,
0xEEEEECF7,
0xF60808FE,
0xF3F404FE,
0xF31A09F6,
0xF5F0EBFB,
0xE8EAF4FD,
0x15FDEBEF,
0x14180F0C,
0x0CFE0607,
0x09F0F9E8,
0xFEF6100C,
0xDD0104E9,
0xD3FBF4F3,
0x0905F2D3,
0xF804FFFB,
0xFF00FF13,
0xF5E7FBEF,
0xF4F8FC02,
0xF20202FE,
0x03F8F3FA,
0xFF050605,
0xFD02FBFE,
0x090F0C05,
0x0AFB0C06,
0x0805080A,
0x09020304,
0x05F70403,
0x0BFEFF0C,
0xE6E3E9FC,
0xFC10E905,
0x1215FCF1,
0x1E0DE4EF,
0x02F7F012,
0xFBF3FD0B,
0x03F40702,
0xFAF8EFEA,
0xEFF60A0B,
0xED000109,
0xF6F2F3F4,
0xF6FDEF00,
0xF3FD09FE,
0x1816ECF5,
0xFEF8F8E6,
0x0DFDFF1A,
0xF3FDFC01,
0x1004FE14,
0x16FBFEFA,
0xEC050714,
0x0209FEE4,
0x0A07DEE0,
0xF8EB02F2,
0xF6E7E7F8,
0x02FDFA03,
0xF8FC0416,
0x03FC09F3,
0xF2F3E503,
0x10E009FD,
0xFCF40012,
0x0605F5F7,
0xF5FA0104,
0xF3F8F4EC,
0xF8F010F4,
0x02F20111,
0xFAF51004,
0x01F4ECF4,
0xD9D7E3FD,
0x0A150DE3,
0x1CF9F908,
0xD7DC09FD,
0xF8E1E506,
0x0E151101,
0xF008D80F,
0x0B00EDFE,
0x0F03EEE9,
0xF00C11FC,
0x150BEEE8,
0xEDFFF5E8,
0xFF08E3CC,
0xEFECF5EF,
0xDE220609,
0x000610DF,
0xFB0F07F2,
0x0012FCFE,
0x00EE0506,
0x13F70108,
0xFBF8F830,
0xFF0CEAFC,
0x01EEEC01,
0x03FEFD06,
0xF3FCEEE2,
0x1311F1F6,
0x0700E7E9,
0xE508090B,
0x1021ECFE,
0xF0FD10EE,
0xFFFDF1F1,
0xF6FDFAFD,
0x080303FA,
0x0C06FBF0,
0x06EBE902,
0xE70509F8,
0xF5E2E7ED,
0xF70C0100,
0x1D06EAF0,
0xF2EFEDF6,
0x02F411EB,
0xE5EAE5F4,
0xFEFD0800,
0xFCFBFBED,
0xF7EC030C,
0x05F5040F,
0xE7FA1701,
0xF4F0F3FC,
0x05FA00D5,
0x0AFA040C,
0xF1051E01,
0x121AE8F1,
0x10F0EDF6,
0x19040C15,
0x0D0DFF0A,
0x02F90618,
0x05010B00,
0xFCFF070B,
0xF8FBFCF9,
0x060CFE08,
0x01FDFE06,
0xFB160D0C,
0x01FE111C,
0x060B09F5,
0x16FCDA01,
0x09F2F81C,
0x0CF50314,
0x07F5F800,
0x07F9EEFB,
0x0608FD03,
0xEF091CF7,
0x061D0409,
0x03100E18,
0x171C1C02,
0x0817FBE5,
0xF9EFED0E,
0xFDF720FE,
0xFF13260E,
0xF4030D09,
0xE7F10509,
0xE1FDF6EF,
0x0E0C03F1,
0x23D7050F,
0x1F0CF309,
0xE8FFF5F8,
0xFCFBE10F,
0xEEFF220B,
0x0704F503,
0xE9F6E0E3,
0xE6B7F2ED,
0xD7FEF4CC,
0xEFE9F8F6,
0x03F6FEFF,
0xFDF4FA05,
0xD3EB1109,
0xF2130ED6,
0x10F503FC,
0xF114170C,
0x2B1F0BFA,
0xFC17FAF3,
0x010A09F9,
0x2213071C,
0xF2FD2524,
0x08010C0A,
0xEEFFFB07,
0xF0F617F1,
0xEFFBFDFC,
0xEF03F7E5,
0xE705D3EC,
0x13010310,
0x19030A12,
0xFAFC0015,
0x0005031D,
0x22F80F01,
0xFF02E3EE,
0xFBEDF313,
0xF80EE6F2,
0x09CEDBF2,
0x04160408,
0x0E100E04,
0xF2F8FE0D,
0xEAF4D5C5,
0xFC0DEEEE,
0x130605FE,
0xFF0AE20D,
0x04E80A08,
0xFBFB0021,
0xE4E014FD,
0xED00F2F5,
0xECFBEDFD,
0xEA0508FC,
0x0612EE01,
0x0D042210,
0xF7DBF90A,
0xE5FDE0D8,
0xFDF7FF05,
0x0B113114,
0x10F6FFFA,
0xF218120C,
0x01061D13,
0x1AF3E2FD,
0x0404151B,
0xF2160606,
0xE209000C,
0x1D1E00F4,
0x011F1DFB,
0x020E0A0F,
0xE8030E02,
0xFB0A09FB,
0xF5EFFEFB,
0x08FA0313,
0x0304060B,
0x0FDBF80E,
0xF0F3E500,
0xFF020007,
0xFEFAFC0C,
0xFFFF00F9,
0xF808FBFE,
0x0F040309,
0x05FCFEFD,
0x0109FD06,
0x0BF5080A,
0x260907FA,
0xF70DFB0B,
0xF40402FF,
0x01F40005,
0x05F703EE,
0xFA0BEC0C,
0x1CE5EAF3,
0x00D6EFDF,
0x01FBED0F,
0xEDF2FF0F,
0x18F3F7F7,
0xF5030301,
0x2207FEFF,
0x07ECFA03,
0x06E8E306,
0x04E70502,
0xEEEEF907,
0xF7020B0B,
0x01F1F1EF,
0xFFEA1B1C,
0x16F3F004,
0x090D02FF,
0xFDFE0310,
0xEDDEE2F3,
0x180E0BF7,
0xFBEDF504,
0x09FFEDED,
0xE804EEFA,
0xE9FE0CF0,
0x1003F6E9,
0xF4F2EB0C,
0x1C2201F6,
0x060C1BFE,
0xF4FE1A10,
0x1318F703,
0x0D020A13,
0x0FF4F8F4,
0x0BFF11FD,
0xEBF10628,
0x0900FBF5,
0xF4031422,
0x0C1AEC07,
0x05FF2001,
0x0B0BF3FB,
0x060C2001,
0x0C27F7F6,
0x0AEAFBF0,
0xF7E9EA04,
0xEB0B0200,
0x0E1B08F7,
0x070BFB06,
0xF6F40503,
0xFCF7FF07,
0xFA090D17,
0x0C1B0AF2,
0x0411F0FD,
0x05E0E3F4,
0xF80809E8,
0x141102F4,
0xECF11710,
0x08EA020F,
0xFEF4EBF3,
0x082F290E,
0xF8F8F707,
0xFD07FAEC,
0x030FE6F6,
0x0FF40412,
0x12FB0DFF,
0xEB0D0D07,
0xF2F403EE,
0xEEDD0CE2,
0x1A1E0BF3,
0xF40704FA,
0xFCDFF9F5,
0xF208F0FD,
0xEEFCEEFB,
0xF0FF00FE,
0x120F07FF,
0xF6FCF509,
0xFEE9EAFA,
0xFAF3FAFE,
0xF0150BFB,
0xF5FBF0E5,
0x1AF0E107,
0xFF030423,
0xFCFE1810,
0x000510EA,
0x181205FD,
0x09040B07,
0xE5DBF105,
0x0EEC010F,
0xEDDCF50A,
0xE9EBEDFC,
0xFBF6FED9,
0xFE01FBF8,
0xFE01FDFB,
0x0000F2F8,
0xF4FDFBFD,
0x0EF6FCFA,
0xFDF00E03,
0xDDEADCED,
0xF7FCF1F4,
0x09010303,
0xFCF1EEF1,
0x13EAF100,
0xF5FF0716,
0x0A131107,
0x051313F8,
0x11FAEFDB,
0x13F70E16,
0x1CFDFE0D,
0xEBE1DE08,
0xC0EA05FF,
0x100202EF,
0x03FF01F5,
0x0A12E208,
0x0AFA04FD,
0x0C030C0B,
0x0C10070E,
0xF9FE0406,
0xFDE30406,
0xE2EBE7FE,
0xFAF903F6,
0xE5EAF6EA,
0xCCF9E8E4,
0xDA09FFE3,
0xE6FD0BF5,
0x0000050C,
0x0B0706E4,
0xF909FA04,
0x0E03040C,
0xF5F20B0A,
0x02F0E702,
0xFC0012F3,
0x0404EDF8,
0xE1ECE2E2,
0xF3F40EFE,
0xFDF50C0D,
0xEBDFFDFF,
0xE8F7F5F5,
0x0B1FFCD0,
0x06021400,
0x00F20AFC,
0x1307FEEF,
0x0CF2EBCF,
0x0EC8E307,
0xF310FF13,
0x0608F9FD,
0x0B171A08,
0xE2FA1811,
0x05EDE3F0,
0x1D13EBE6,
0xFE13EDFB,
0x0404FD03,
0x0115E109,
0xF3F50AFB,
0xFE07F6F1,
0xF4F2F8F3,
0x00F0F1F5,
0xFBF309F3,
0x10FAFE19,
0xEDF0EEF8,
0xE2E3CAFD,
0x0D00FE01,
0xFD0AF7F0,
0x1CE8ED0C,
0xFE0B0C09,
0x0C1EF9F4,
0x16FFFAF5,
0xF8EAF906,
0x14E8F7FB,
0xFBE10418,
0xFAF6090C,
0xF00B0A03,
0xFB04E0EF,
0xF8171104,
0x04170FFC,
0xFF04F5F0,
0x0CFBF424,
0xF3EDFF0A,
0x07E70004,
0xF7F303FB,
0xECF5FEEF,
0xF5FCF9F8,
0x000E0DEF,
0x1706F8F1,
0x05F6DE11,
0xF902F9DE,
0x060C27ED,
0x2637F7FB,
0xFA030607,
0x030A0A05,
0x191113D8,
0x100A0B0E,
0x0305F805,
0xF90A000F,
0x0A0B05FF,
0x15040804,
0xFE080510,
0xDEF6150C,
0xEC02EFD6,
0xF7F5E6E7,
0xF9FFFA0D,
0x080919FB,
0xF00ED208,
0xE6D9DCC3,
0xF9071407,
0xF1000102,
0xF9123908,
0x1527F4C6,
0xE80F1704,
0x0D06F7F4,
0xEA03F703,
0xF2D9FCD6,
0xEDFE0FEE,
0xF43011E7,
0x07F7E9F9,
0xF5DBC0D4,
0xFC0C13F1,
0x01130712,
0xE8ED0EEE,
0x030A02EB,
0x250CF1D9,
0x0A12FE3E,
0x04FB0F20,
0x0417040A,
0x0B092412,
0xFA13E6E1,
0xF50608F1,
0x1128F9FF,
0x0509050C,
0x060A1016,
0x0A1A182E,
0x0114F9EE,
0x1CF9F10A,
0x15040909,
0x04FEF606,
0xED1D0008,
0xEDDCF8D1,
0xFAFCDC19,
0xE6FF0CFD,
0x131A06F0,
0xFF1003E5,
0x13F0EBEE,
0xFEEFF9FE,
0x11F5FF0E,
0xF1E3EFFC,
0x01F21931,
0xCA0815FD,
0xDCDDEBE3,
0x06F7E3E5,
0x16EE04F3,
0xF2180E04,
0xF2E4F40B,
0xACF8F4E4,
0xE2D6DBDC,
0x0302EFF4,
0xFC0203F9,
0xEEF7E50E,
0x130DF7F4,
0xFD2E1B1C,
0x1502FC02,
0x1300F2EB,
0x21EFD508,
0xE2F4FAF9,
0xFDE1E1F9,
0x100A05FA,
0x04EB1118,
0x0907F909,
0xEEF51B0D,
0xE1110CFA,
0x18FC0308,
0x131008E2,
0x02020B23,
0x04152017,
0x02D2F8F5,
0xE009EE01,
0xEF0514FF,
0x1415F20B,
0x09F61F16,
0x0BFD0007,
0xF2FD0715,
0x11EEF312,
0x03EDEEE1,
0xEBB6FA06,
0x031E300F,
0x15271F19,
0xFAF3F2F7,
0x15FBFA00,
0x0C0F1521,
0xF2FE1409,
0x0009F7F2,
0x0C0CF8E4,
0xF501FA11,
0xF300F1FE,
0xF700FD00,
0xF9FFFF08,
0xFAFBFC0B,
0x00FBFBF4,
0xF9FFF2F2,
0xFD0CFCF7,
0x01E2ECEF,
0xF00BECF7,
0x150F0FE3,
0x1922EFE6,
0xF8F4FBF3,
0x080F100A,
0xF912E7F7,
0x0E11F91C,
0x1D1D1910,
0x1BEEF8FB,
0x0BFFF80A,
0x1309FA06,
0xF3FAF8F6,
0x0509EEF4,
0x09EEDCE0,
0x0C0417FF,
0x14F1DEF4,
0x04F4F90D,
0xFB180E0B,
0xF1F60B00,
0xFF0700DD,
0x1E13E6E9,
0x080614F8,
0x07FEDFF6,
0xFF01F3F9,
0xF40D2022,
0x030EFAE4,
0x07F6F105,
0x061BF608,
0x02F1F910,
0x140BFD11,
0x02F5F8F0,
0xDEDED104,
0x04F5F2E3,
0x11EFFEFC,
0x00F70518,
0xEBEADD0A,
0xCBD9ECEC,
0xF92300CE,
0x1015E906,
0x0AF604FD,
0x08FBF4EA,
0x0E13FC03,
0x09E3F108,
0xE50418F7,
0x0D05EEF3,
0xE402221F,
0xF62A29E5,
0xE7FCD5EB,
0xEF1002E5,
0xF9F602DD,
0xEB2A240B,
0x05030AEE,
0xDCFC110D,
0xE307F80C,
0xF7FCF1EC,
0xF4E7E505,
0x0913FA0F,
0xF7EC1213,
0x0C00FE03,
0xFA00060D,
0xED07EE06,
0x24FCF109,
0xEEEDF3DA,
0xCC1DFC16,
0x0716FEF2,
0xEE042D06,
0x0FFE07F2,
0xFB160BF4,
0x07FAE9E5,
0x0215F4FC,
0x100008FA,
0xEEFE000A,
0xF1E7FAF6,
0x01FD09F6,
0x12FBDEEA,
0x190BF2ED,
0xF500DC1C,
0x0701F6FC,
0xF3121903,
0xFCF8E6DE,
0xEFD7DE07,
0xE2D61600,
0xD5EF0BDC,
0xFA001C11,
0x0BFBE3E9,
0x00020C0E,
0xE800F8F8,
0xFDDEF2E9,
0xD702FF0B,
0xFAFBFBFB,
0x01EBF9F0,
0x07F9F6F5,
0xF601F9FD,
0xFAF8F202,
0x1100FAFA,
0x0705F3F9,
0x0601F7FD,
0xE2E702F6,
0x0011E3D1,
0xFCF6F919,
0xF0F30A23,
0xEF212200,
0xF7FA060A,
0xF80D0D09,
0x06FBFE07,
0xEFFB04FE,
0xFDFAEDEA,
0xE4E7E0E0,
0xF3F9F604,
0x100401F0,
0xE8E2FD00,
0xF90C00DB,
0xF70DE106,
0x01F515EF,
0x0BEFFE06,
0xFD0E0F12,
0xFBF0F5FA,
0xEFECF8F5,
0xD6D80402,
0xEDE805F6,
0xF903E803,
0xF4F7FAE6,
0xE6ECFFFE,
0x02130DFD,
0xFE0AFB00,
0xC8021508,
0xFF07F4DB,
0xF4FDC6C1,
0x04F2E0F6,
0x0200140D,
0xE3F9F5D8,
0x080AE4E1,
0xF3F4F3DB,
0xF4E4EFFD,
0xF1F104F4,
0xEBE70112,
0x08FFF8DF,
0xCFE6E7EE,
0xD90904C7,
0x1A1D00E8,
0x040714F9,
0xE5EEEC04,
0xF9180DD8,
0x20E4E40F,
0xE8CEEB15,
0xCED90C0C,
0xF0F01109,
0x01F12C0C,
0x10FAE4E9,
0x0BFBF816,
0x0407000B,
0xF801E11C,
0x18EA16FC,
0x0208F601,
0xF501FF00,
0xFBF5FBE9,
0xFAFEFCEB,
0x1317000E,
0xF90C1518,
0xEF0404FE,
0xF9F3D8EE,
0xFD01FC0D,
0x0A160EFB,
0x1D02F1EF,
0x02EDFE07,
0x0B10FA0E,
0x01F00409,
0x0FF6081A,
0xF9FC0B00,
0xE7EFEAF2,
0xF3EB0611,
0x0C0C01F6,
0x04FAF7EC,
0xF1E9DCF4,
0xEAED05F9,
0xF9EC00DD,
0x04FEFF13,
0x1108070A,
0x02ED040A,
0xDFD6F9F9,
0x0B20EEF7,
0x0720E8E8,
0x0503DC05,
0x07FCEFF5,
0xF7F8E609,
0xF5D9E4FC,
0xFC180E03,
0xEDEE09FB,
0xE1100E0E,
0xFEF1F6F0,
0xE0F1E7F5,
0x09090DCC,
0x06FF0C0E,
0x051D0402,
0x0C00FEF6,
0x0702FD09,
0x07FBF7FC,
0x2226FBF4,
0x2B1DFC00,
0x1DF90515,
0xEEF50701,
0xF0211111,
0x170B16FC,
0xF70502F1,
0x18F4EBD9,
0x1202F6D9,
0x15100717,
0xED000711,
0xE4FBF313,
0xF4E1EAEC,
0x302016F7,
0xF5121515,
0xFD0C051C,
0xE9F80FFA,
0xEEEEF0E5,
0xF7F5F1EA,
0xFB08FB09,
0xD2D20FF5,
0xC100E7ED,
0xF2F9EADA,
0xEBF3E6F5,
0xF2191700,
0x090CFB10,
0xFCF3D9E7,
0x1802EE0F,
0x05F7EDF9,
0x15F6F101,
0xFE0C01FD,
0x0507EBFB,
0x060701FB,
0x080BEBDF,
0x15F1DF0A,
0xE1D0030C,
0x08FFFFF3,
0xEEEDD6EE,
0x1C11FA00,
0x0806F614,
0xE1FB10FD,
0xFEEDE50D,
0x03F3EF02,
0x0506F104,
0x09041C07,
0xEF061905,
0x0619FFF9,
0xFF061705,
0x100F1E00,
0x0A07021A,
0x0D3B1D13,
0x1C21110F,
0xF4FCF414,
0x07D80E1E,
0xDB071120,
0x1CFB03FF,
0x05F4FFF7,
0xFCD6D2D9,
0xF0D9E1F7,
0xFC040FF1,
0x070900FD,
0xFD071A10,
0xF7101004,
0x03FC2822,
0xE1201000,
0xFB0515EC,
0xF90400FC,
0xFCFA0EF2,
0x01FAF6FF,
0xDDF2F61E,
0xD1F30BF7,
0xEDE9D5D1,
0x0005F4CF,
0xFAEEFC12,
0x080EFFF1,
0xEAF4FC0A,
0xD609F1EB,
0x04F0EBEC,
0xF1000CF7,
0xEE0112F1,
0x130C0A04,
0x00F707FF,
0x040D0B02,
0x0105EAEF,
0xE6DAD502,
0xFBF3DCE3,
0xFEEFF7FF,
0xF7F9F0FA,
0xFAF1EBF6,
0x00FE06E4,
0x070FFDF7,
0x03ECF003,
0x06FAEB09,
0x02EEF400,
0xFDFD0C08,
0x060307FA,
0x0200000A,
0xFC030702,
0x0B0903FA,
0xF903FF08,
0x0B05FE09,
0x020DFDFE,
0x2700F20D,
0x01E7F1F5,
0xF407E310,
0x04FCFE14,
0xFE0414F2,
0x06F9FD0B,
0xEBF8F7F7,
0x0CFC0705,
0x020CF2F1,
0x020F0805,
0x10050001,
0xFC00F1F4,
0xFEF4F6F5,
0xF9010DEE,
0xFE09F101,
0x0AF80CF6,
0xEF07EAFE,
0x0CFAFCF8,
0x1702F901,
0xF504E9F3,
0x0F0EECF2,
0x0B01E2ED,
0x0DF70729,
0xE8F6133F,
0xFE03F9F0,
0xFAF7FAF8,
0xEAE5E804,
0x02FCF8FC,
0x020804F0,
0xF2FD0E09,
0xEDFBFAF7,
0xFEF4F303,
0xFE040EF2,
0xF4F7FDF5,
0x0113070D,
0x0E00F9F8,
0xF309F4FB,
0x02FDE602,
0xEFFC04FF,
0xECFEFFF6,
0xF0FD1404,
0xF2EE05F8,
0x000AFDF4,
0xF5FEFFF7,
0xF9FAEBF4,
0x08E6F903,
0x04F5FDFD,
0xF006F2F4,
0x01110C0D,
0x01FC0502,
0xF904F8F5,
0xFBF4F5F3,
0xFAEBE3F0,
0xF7F0F103,
0x01F1F8F1,
0xFB00FF08,
0xEEEDFAFE,
0xFAF3FCF8,
0x0C0EF5F9,
0xFCFDF7F7,
0x0FFDF3F3,
0xF8100103,
0xFA10FFFF,
0x0BEDF7E5,
0xE8FFFFEB,
0x0D0CFD04,
0x12EFF1F6,
0x1512FB09,
0xF9ECEE0B,
0xF4F3F6FC,
0xEDF4ECF7,
0x01EAF9F3,
0x06FBF919,
0x10F205FD,
0xFDECE9FA,
0xF9F6FB04,
0xF904F1F0,
0xF008F0F5,
0x0001F4F4,
0xEDF6F7F5,
0x05F6FCF9,
0x091500FA,
0x1107F8FB,
0xFCF7FF13,
0xF6F705EB,
0xEB061CF0,
0xF1F3E7EC,
0x080EF503,
0xF7F7FA0D,
0x09F600E1,
0xF80F170D,
0xF3090523,
0xF9F2EFE0,
0x07040E04,
0x04F503FC,
0xF9F5FB08,
0xF8F4F102,
0x0103F8F8,
0x11050008,
0xE805121D,
0xFF1614BA,
0x0607E9D4,
0xF5CFD7D7,
0xE5EDFDF4,
0xDB0AE5F5,
0xFBE3F8EB,
0x09FAFCFB,
0x13FCF700,
0xF7E5ED2F,
0x03DDE0EA,
0xE0F8170B,
0x14EFF3F3,
0x04F4E912,
0xFFEAEAF2,
0xECDEF1F0,
0xF918F900,
0x13FFFC02,
0xFF0CFB01,
0x13011904,
0x111BF709,
0xFE08040D,
0xF5F92125,
0xF91410E8,
0xFAEEFAFA,
0xE0EBE9DA,
0xFCECE4DC,
0x0BF71419,
0xF9191907,
0x1514F013,
0x01FEEB07,
0xFCF1F005,
0xF8F3F8EB,
0xF90417F2,
0x0818F501,
0x060113FC,
0xF005F301,
0xF3F4F9FB,
0xEE04F11F,
0x0A0802F0,
0xF4F9FC07,
0xFAFB02E5,
0x1007EBF0,
0x0FE50304,
0xDCE32206,
0xD627FD00,
0x082B09FD,
0x0DE8E3E2,
0xE2E5F6DE,
0xF8F3DAC0,
0xD801040E,
0xEBF706F5,
0xE3FEF6E3,
0x15F2ECED,
0x05FA140F,
0xF5060506,
0x0E05F9EF,
0x0210FBFF,
0xFCF5DC13,
0xF7DE050B,
0x0BE3EDF8,
0xF90B0B07,
0xE5020D1D,
0x080415E3,
0x0A0BF4FC,
0x0C0B141F,
0xEB022C27,
0xF0070EF6,
0xEE09FFE1,
0xF0FEF8FF,
0xFD0806EF,
0x1D1A0904,
0xE41202F0,
0x0D0410EC,
0x00F4EDF9,
0x0108120A,
0x15001414,
0x0306EBF6,
0x0803F2EA,
0x090DE2FC,
0x08FF0B08,
0x110D0209,
0xFEFA0D02,
0xFFE5FE1D,
0xF112151A,
0x16F000E6,
0x14FF02E8,
0xFF020808,
0x0B10060C,
0xE4E40309,
0xF6E7000D,
0xF8F1DFF1,
0x01031423,
0xFD0BFEE6,
0xFEF815FF,
0x030C09FD,
0x07FB0509,
0xF4F1FD08,
0x03080C0E,
0x03101204,
0x000009F3,
0xE0F7D9E7,
0x05F9FA09,
0x10E6EEE3,
0xF6F9CEE6,
0xFEF0C1F2,
0xF2010305,
0xF5010E04,
0x29F6FF0F,
0x05E9FF29,
0x09070B1D,
0xC9D2031A,
0xF0ED0424,
0xFEF825FB,
0x11E808EE,
0xE1ECE707,
0xE9EAEFF8,
0xF0EDECFB,
0xFD061028,
0xFA101612,
0xF8111600,
0x020AF1E7,
0xEA041A06,
0xEA1111D8,
0x03F5C3D1,
0xF3FA1004,
0x03FBF5F5,
0xFA0900E4,
0x16FDF401,
0xF6222431,
0xF90A17FB,
0x121204F9,
0xEEF1E8EF,
0x0CF9E6EE,
0x011E051A,
0x1C0C08EC,
0xF3D3EE27,
0x13FFF7EF,
0x090E0312,
0x17100E14,
0x1D11DF00,
0xE3B5EE01,
0x01E0CEDE,
0xEDF80EFB,
0xFD05F3EF,
0xE9F4EB03,
0x012B1208,
0xFE24F0D5,
0x16F5DAD3,
0xF710B3C1,
0x0BF4FCF5,
0xEE0AF6E7,
0xF301FC01,
0xF40400DE,
0xEBDCF1EE,
0x142A180C,
0xFF010618,
0x02FDFF10,
0xDEEE1323,
0x0DF80DED,
0xEDDCEFF4,
0xCDE0EAEF,
0xFCEFF315,
0xF208080F,
0x0AEBF9EC,
0xF8EEEC0B,
0x202207F7,
0xF2F4F2FC,
0x050D07FD,
0x011A01F9,
0x0B040A12,
0x1C11F705,
0x05EA0D09,
0xF7F5FAF8,
0x070DBAEC,
0x0805090A,
0x2509120C,
0xF1FEF5FB,
0xF5F8FE04,
0xEFF8CCC4,
0x10E8FEDF,
0x0A140B03,
0x2800050F,
0xE9F51826,
0xFB0717E3,
0x20FAE515,
0xF4EBF902,
0xFCFE04FE,
0xFDFB0001,
0xFBFCFBF7,
0xFAFEF806,
0xF8FF01FA,
0x00FCFAF8,
0x01040504,
0xFF0401FB,
0x01040000,
0x05FE0004,
0xFB0303FC,
0x05FBFFFB,
0x02FEFFFE,
0x00FCFA04,
0x00F80200,
0xF90306FB,
0x02FF00FE,
0xFC0000FA,
0x0104F904,
0xFA04FCF9,
0xFA02FDFB,
0x02FE00FE,
0x03FC04FD,
0xFCF8FC01,
0xFEFF01F7,
0xFEF9FEF7,
0xF704FCFE,
0x06FBF7FE,
0xFFFA0101,
0x04FFFDFC,
0xFDFC03FA,
0x04FD0005,
0xFEF80302,
0xFCFD0202,
0xF7FC0001,
0xFE03FA02,
0xFFFEFDFF,
0x0305FCF8,
0x02FB00FB,
0xFCFD0802,
0xF9FE03FC,
0xFD0503F8,
0x00FEF7FD,
0xFEFDFC04,
0x0201FE00,
0xF80204FE,
0x00010000,
0x01F7FFFE,
0x04F7FBFD,
0xFDFCFCFF,
0x0003FFFE,
0xFC01FDFB,
0xF7FEFBFD,
0xFFFDFE01,
0x01F905FC,
0x02FEF604,
0xFF0002FF,
0xFA0304F7,
0x02FA0001,
0x010203F7,
0x0100FDFC,
0xF8FB0405,
0xFCFEFFFE,
0xFA0201FA,
0x03FDFEFC,
0xFCF605FB,
0x0105FF04,
0xFAFEFFFA,
0xFBFC0406,
0x02FFFA01,
0x00FEF9FE,
0xFC02FD03,
0xFD0001FB,
0xFCF9F902,
0xF800FAFF,
0xF7F90203,
0xFEFBFCFD,
0xFA000500,
0x010002FB,
0x03FEFAFF,
0xFEFEFAFF,
0x0104FDFE,
0xFBFCFAFD,
0xFA02FCFC,
0xFEFFF6FF,
0x03FA05FC,
0x0203FD01,
0x03FDFDFB,
0x0204FB03,
0xFA000203,
0x00F9FCF9,
0xFB040401,
0x01FEF9FD,
0x03F701FE,
0x0003FAFC,
0x04FB03FF,
0x02FD00FA,
0xFFFC0101,
0x0200FD04,
0xFFF8F800,
0x070D04F3,
0xFE181003,
0xDFF011FE,
0xE5070EF4,
0xF8FB0203,
0x0704FEF5,
0x09F80110,
0x01020607,
0x030EFE00,
0x03FB0807,
0x020700FE,
0xF7FFFA04,
0x07FD1010,
0xFBF50B07,
0xFE070701,
0xFF000815,
0xF11411FF,
0x0D06FFF8,
0xEAF2D8DB,
0x0507ECF2,
0x0A00FC03,
0xF3FF2103,
0x0403FF07,
0xFAF92320,
0x0DF10CF9,
0xF50B05F8,
0xF00915EF,
0x07170F08,
0xFC120A0F,
0x07EFFEF4,
0x12F2F7EC,
0x19F6F507,
0xE4DD1207,
0xE1F701ED,
0xEA1414E6,
0xF406DEE4,
0x0C07FBEF,
0xFDF7F4F7,
0xF2F5F007,
0x0800E2EC,
0xEE12EBF3,
0xFCFEF6F0,
0x0110F0F6,
0x16DAF006,
0x0A091719,
0x18FBE6E2,
0x05F5EF05,
0x0501F006,
0x13DDE3EF,
0x08FE1417,
0x130601F7,
0x01DFFA04,
0x1B030518,
0xE20A0610,
0x221DF6EB,
0x0915DEDC,
0xF3E6FA0C,
0xF50305FE,
0x0EF0F60C,
0xE9EF19FE,
0xD8FC0619,
0x150819CE,
0x09FAE1E4,
0x09DEEE12,
0x07F80114,
0x0EE4170D,
0xF1FBF21A,
0xF3F0FFF6,
0xE5E3E1DD,
0x08FFFBE4,
0x0902FF08,
0xF3F6F018,
0x02F61AF0,
0x090EFEF4,
0xEEF1050A,
0xF8F7F604,
0xFF08FE09,
0x0E01021D,
0x05F11824,
0x0311FB03,
0xDBF7F3F6,
0xE6DAFCDF,
0xEDF01401,
0xE715FF01,
0x191804EA,
0xF5D8E1F3,
0xFE0307F1,
0xEC14E7EE,
0xE9F8FFF9,
0xF42708FD,
0xE70312F1,
0x0AF2F617,
0x06FB0A0E,
0x02F8100F,
0x0C220704,
0x0EF9E7FE,
0x02FDEAF2,
0xE5DDE70A,
0xF703F301,
0xFF040009,
0x0000FA02,
0xF9FF00FC,
0x00FBFC03,
0xFAFBF900,
0x01FE0102,
0xFAFE0200,
0x000601FD,
0xFBFC00FF,
0xFF01FDFC,
0x00FCFFFB,
0xFFFDFB05,
0x0202FDFA,
0xFD02FB06,
0x03FAFAFA,
0xFF00FCFA,
0xF8FFF6FF,
0xFB01FD02,
0xFF00FCFD,
0xFEFBFCFF,
0x0200F602,
0x00F8F7FB,
0x040002FC,
0xFFFA0200,
0x0000FF00,
0xFDFDFCFF,
0xFFFAFBF6,
0xFE05F800,
0xF9FFFFFC,
0xFEFA01FD,
0xFCF9FAFF,
0xFEFDF9F8,
0x02FC01FB,
0x04FDFEFF,
0xF90200FF,
0x000303FF,
0xFB02FBF9,
0xFAFF04F9,
0xFAFC03FE,
0xFDFAFFFA,
0xFBF9FD00,
0x00F6FC06,
0xFAFD02FF,
0x0303FCFD,
0xFFFFFD00,
0xFA0102FE,
0xFAFA04FB,
0xFB01FB02,
0xFAFF0302,
0x0200FAFA,
0x00F6F802,
0xFCFFFB01,
0x0104FD04,
0xFE02FA03,
0xFF0102FF,
0xFEFAF7F6,
0x03FFFC01,
0xFFFE0301,
0x02FEFFFF,
0xFE04FE00,
0xFEF7F7FF,
0xFEF8FA04,
0xFBFC00FE,
0xFCFDF8FA,
0xFAFC0201,
0x04FF01FE,
0xFE01F6FE,
0xFFFCFAFB,
0x03FA0100,
0x02FCF903,
0xFF02FA00,
0xFD0303FD,
0x01FCFBFD,
0x04F901FA,
0x03FD00FF,
0x00FBFAFF,
0xFFFFFA02,
0x01F90003,
0xFCFB04FE,
0x03FCF702,
0xF9F802FB,
0xFC04FAFF,
0xFE0402F8,
0xFBFEFFFB,
0xFDFB00FA,
0x0205FF01,
0xFCFAFFFA,
0x04F7FCF9,
0xF900F8FC,
0x04FCFDF9,
0xFC01FDFF,
0xFAF800F5,
0x00FB0101,
0xFC01FBFE,
0xFC04FBFD,
0xFAFCFB00,
0x0503FE03,
0xFEFEFF04,
0xFBFDFD01,
0x0103FB04,
0xFE03FA04,
0x0E0702F7,
0xFC0A03F3,
0xECF5EFEF,
0x06EAE8EF,
0xE1F5000C,
0xE7F60302,
0x010100E6,
0x070DF8FB,
0x0A060503,
0x0B04FE09,
0xFDFBFAFE,
0x0BF70115,
0xF0E81108,
0xF3F9F2F8,
0xF702EAF1,
0x0002FD0B,
0xE5160E00,
0xD8E50601,
0xF30617F9,
0xE4FDFC00,
0xF30609F5,
0x0FFCEEE1,
0xECE9F007,
0xDFF108F2,
0xFAF107E8,
0xDFE1F4FD,
0x020F04DF,
0x1810010C,
0xF2040704,
0x16F0F7FE,
0x0A060EFB,
0x030CF115,
0xF5E9ED06,
0xF3E0F000,
0xF9E4FC11,
0xEDF209F5,
0xF30511DC,
0xE0D80BE5,
0xF60209FC,
0xFBFAE0EE,
0xE7F2FC03,
0xF7F909FA,
0xF3FAF7F0,
0xF205EADD,
0xFF131901,
0xE7D6D60A,
0xECF90200,
0xFB03F5E0,
0x17F8DDF0,
0xF5F3ECFE,
0xF8DC040C,
0x0510FDE0,
0xEFF6F7F7,
0xEA0C05E1,
0x03FD13F2,
0xF30921FB,
0xEFF102FA,
0xFBF6E5D3,
0x08EAFC00,
0x06FD0512,
0xF6F4100D,
0xE5BBDFFE,
0xFAF01BFD,
0x00F6F3E8,
0x070709F0,
0x050DF5F7,
0xEFE9FBF5,
0xF9E90304,
0xF2150B0C,
0xED00FD04,
0xFCEEF5E9,
0x18F4F0E4,
0x080AE300,
0x0AE7F607,
0xE2F9F8F5,
0xEAEADDDF,
0xF5F0FEF7,
0xFC0DEBF6,
0x110303C5,
0xFF070C02,
0x15F8E5EE,
0xF9FDE0EF,
0xF6E7E104,
0xF2DEFBFD,
0xD609FE04,
0xE8F505FD,
0x000D03DB,
0x0DF0F9E0,
0xE7ECFAFE,
0x0DEB04F6,
0xF80BFBE5,
0x0B0DF1FD,
0x1004E8F7,
0xFEDEEFFD,
0xE3DC0912,
0xFE0BFAE9,
0x0716ECF7,
0xF8E60ADB,
0x10F608F0,
0xF9EFFA0E,
0x0712130A,
0x06FA090B,
0x150B02F9,
0x13FC0410,
0x02110F13,
0x04FE000A,
0x04050317,
0xFC0308FB,
0x01FFFCFC,
0x00FE0400,
0x0606FD00,
0x00FDFCFC,
0x06FE09FF,
0x1501010E,
0x04050408,
0x0C050109,
0x0508F702,
0xFFFC020C,
0x16080C0F,
0x070BFD13,
0x0D0809FC,
0x0F120D05,
0x08150410,
0x150408F9,
0x0EFD00FC,
0x0703FB03,
0x01060008,
0x08000A00,
0x0115050B,
0x0B0A0A18,
0x190B160C,
0x05000202,
0x00FDFD09,
0x0513F605,
0x09000304,
0x0E040604,
0x0808051C,
0x1515110D,
0x0D040811,
0x01FF050E,
0xFD130303,
0x0A020603,
0xFEFE0603,
0x01FF0A07,
0xF9FE0A09,
0xFAFE0504,
0x0002FCFE,
0xFCFB09F9,
0xFD0100FD,
0x08010906,
0xFB0B05FF,
0xFE060101,
0x000B0802,
0x000C13FA,
0x06130601,
0x060B0105,
0xF70F1A02,
0x000D0108,
0xFBF6FE01,
0x0DFF0708,
0xFA04FD08,
0x03F6F605,
0xF801FC0C,
0x0205F804,
0x080502FA,
0x071505FB,
0x110A00FF,
0x04F8FC06,
0x0CFBFD1A,
0x01081311,
0xFFFE0210,
0x05F9FE0F,
0xF9010D15,
0xFE010607,
0x05010AFD,
0x0A140613,
0x0A02050B,
0x14F60113,
0xFA01FE16,
0xFA030EFB,
0x061303F0,
0x0B0F0406,
0x12120402,
0x0A04070F,
0x0901F7F9,
0x0C060902,
0xFC07FC12,
0x11040DFA,
0x02FC0706,
0x0208FBFD,
0x0807F405,
0x030C0609,
0xFB080109,
0x0904FD03,
0x080709FE,
0x10090501,
0xFC080B01,
0xFE0211FD,
0x051310F4,
0x0810F801,
0xF8FAFD00,
0xFF0302FF,
0x0202F902,
0x00FAF901,
0x0102FB04,
0xFAFA01FC,
0x0305FEFD,
0x0004FCFF,
0xFC04FF00,
0xFB04FDFE,
0x03FFFFFB,
0xFAFFFAFC,
0xFE01FE01,
0xFBFCFDFC,
0xFD05FCFD,
0x00FBFEFB,
0xFC00F8F8,
0xFFFDFB02,
0xFA00FB01,
0x02FAFDFC,
0xFE03FEFA,
0xFAFDFAFE,
0xFBFA0202,
0x05FBFBFE,
0xFCFFFA04,
0x03FDFF04,
0xFDFCF9F9,
0xFAFA03FF,
0xFEFCFAFF,
0xFBFA04FF,
0xFAFFFDF9,
0xFA01FD01,
0xFAFDFCFC,
0x0202FA01,
0x0104FBFF,
0xFF03FDFD,
0x0402FBFC,
0xF8FB0001,
0x0401F7FC,
0x0004FFF7,
0xF7F701FB,
0xF8FFFDF8,
0xFAFBF700,
0xFB0403F8,
0x02FEFDFF,
0x0303FA01,
0xFE02FAFB,
0xFA03FB02,
0x000105FC,
0xFEFA02FA,
0xFBFD0103,
0x02FC05FE,
0xFBFCFF00,
0xF8FA04FB,
0x01010102,
0xFA05FD04,
0xFEFBFA04,
0xFC0000F7,
0xFDFCFDFD,
0xFE05F6FB,
0xF60200FB,
0xFFFDFA00,
0xFEFAFFFF,
0xFAFE0000,
0x00F8F9FD,
0x05FCFDFA,
0xFFFFFEFB,
0xF600FC03,
0xF8FC02FC,
0xF8FB0000,
0xFD020102,
0xFCFEFFFD,
0x01FE00FC,
0xF6F7FAFC,
0x00F7FAFE,
0xFCFAFDFB,
0x010001FF,
0x02FDFCFE,
0xFCF90001,
0xFA04FF00,
0xFCFBFFFD,
0x01FF01FF,
0xFBF7FEF8,
0x00FC00FE,
0xFD00FB02,
0xFEFBFAFF,
0xFCF6FD03,
0x01FD02FC,
0xFBFBFA01,
0xFFFDFD00,
0xF9010202,
0xFD03FE00,
0xFBFDFC00,
0xF9FBFA02,
0xFCFA05FA,
0xFB0303FD,
0x0404FB02,
0x03040304,
0x05FFFA04,
0x01020503,
0xF106F3E4,
0x0600FB00,
0xF8EE05FD,
0xF8100CFE,
0x0612FFF7,
0x0A0F0A11,
0x050BFFED,
0xFDFC14FF,
0x0D090A04,
0xFA0703FF,
0x08020907,
